node {
  name: "global_step/Initializer/zeros"
  op: "Const"
  attr {
    key: "_class"
    value {
      list {
        s: "loc:@global_step"
      }
    }
  }
  attr {
    key: "_output_shapes"
    value {
      list {
        shape {
        }
      }
    }
  }
  attr {
    key: "dtype"
    value {
      type: DT_INT64
    }
  }
  attr {
    key: "value"
    value {
      tensor {
        dtype: DT_INT64
        tensor_shape {
        }
        int64_val: 0
      }
    }
  }
}
node {
  name: "global_step"
  op: "VariableV2"
  attr {
    key: "_class"
    value {
      list {
        s: "loc:@global_step"
      }
    }
  }
  attr {
    key: "_output_shapes"
    value {
      list {
        shape {
        }
      }
    }
  }
  attr {
    key: "container"
    value {
      s: ""
    }
  }
  attr {
    key: "dtype"
    value {
      type: DT_INT64
    }
  }
  attr {
    key: "shape"
    value {
      shape {
      }
    }
  }
  attr {
    key: "shared_name"
    value {
      s: ""
    }
  }
}
node {
  name: "global_step/Assign"
  op: "Assign"
  input: "global_step"
  input: "global_step/Initializer/zeros"
  attr {
    key: "T"
    value {
      type: DT_INT64
    }
  }
  attr {
    key: "_class"
    value {
      list {
        s: "loc:@global_step"
      }
    }
  }
  attr {
    key: "_output_shapes"
    value {
      list {
        shape {
        }
      }
    }
  }
  attr {
    key: "use_locking"
    value {
      b: true
    }
  }
  attr {
    key: "validate_shape"
    value {
      b: true
    }
  }
}
node {
  name: "global_step/read"
  op: "Identity"
  input: "global_step"
  attr {
    key: "T"
    value {
      type: DT_INT64
    }
  }
  attr {
    key: "_class"
    value {
      list {
        s: "loc:@global_step"
      }
    }
  }
  attr {
    key: "_output_shapes"
    value {
      list {
        shape {
        }
      }
    }
  }
}
node {
  name: "global_step/IsVariableInitialized"
  op: "IsVariableInitialized"
  input: "global_step"
  attr {
    key: "_class"
    value {
      list {
        s: "loc:@global_step"
      }
    }
  }
  attr {
    key: "_output_shapes"
    value {
      list {
        shape {
        }
      }
    }
  }
  attr {
    key: "dtype"
    value {
      type: DT_INT64
    }
  }
}
node {
  name: "global_step/cond/Switch"
  op: "Switch"
  input: "global_step/IsVariableInitialized"
  input: "global_step/IsVariableInitialized"
  attr {
    key: "T"
    value {
      type: DT_BOOL
    }
  }
  attr {
    key: "_output_shapes"
    value {
      list {
        shape {
        }
        shape {
        }
      }
    }
  }
}
node {
  name: "global_step/cond/switch_t"
  op: "Identity"
  input: "global_step/cond/Switch:1"
  attr {
    key: "T"
    value {
      type: DT_BOOL
    }
  }
  attr {
    key: "_output_shapes"
    value {
      list {
        shape {
        }
      }
    }
  }
}
node {
  name: "global_step/cond/switch_f"
  op: "Identity"
  input: "global_step/cond/Switch"
  attr {
    key: "T"
    value {
      type: DT_BOOL
    }
  }
  attr {
    key: "_output_shapes"
    value {
      list {
        shape {
        }
      }
    }
  }
}
node {
  name: "global_step/cond/pred_id"
  op: "Identity"
  input: "global_step/IsVariableInitialized"
  attr {
    key: "T"
    value {
      type: DT_BOOL
    }
  }
  attr {
    key: "_output_shapes"
    value {
      list {
        shape {
        }
      }
    }
  }
}
node {
  name: "global_step/cond/read"
  op: "Identity"
  input: "global_step/cond/read/Switch:1"
  attr {
    key: "T"
    value {
      type: DT_INT64
    }
  }
  attr {
    key: "_output_shapes"
    value {
      list {
        shape {
        }
      }
    }
  }
}
node {
  name: "global_step/cond/read/Switch"
  op: "RefSwitch"
  input: "global_step"
  input: "global_step/cond/pred_id"
  attr {
    key: "T"
    value {
      type: DT_INT64
    }
  }
  attr {
    key: "_class"
    value {
      list {
        s: "loc:@global_step"
      }
    }
  }
  attr {
    key: "_output_shapes"
    value {
      list {
        shape {
        }
        shape {
        }
      }
    }
  }
}
node {
  name: "global_step/cond/Switch_1"
  op: "Switch"
  input: "global_step/Initializer/zeros"
  input: "global_step/cond/pred_id"
  attr {
    key: "T"
    value {
      type: DT_INT64
    }
  }
  attr {
    key: "_class"
    value {
      list {
        s: "loc:@global_step"
      }
    }
  }
  attr {
    key: "_output_shapes"
    value {
      list {
        shape {
        }
        shape {
        }
      }
    }
  }
}
node {
  name: "global_step/cond/Merge"
  op: "Merge"
  input: "global_step/cond/Switch_1"
  input: "global_step/cond/read"
  attr {
    key: "N"
    value {
      i: 2
    }
  }
  attr {
    key: "T"
    value {
      type: DT_INT64
    }
  }
  attr {
    key: "_output_shapes"
    value {
      list {
        shape {
        }
        shape {
        }
      }
    }
  }
}
node {
  name: "global_step/add/y"
  op: "Const"
  attr {
    key: "_output_shapes"
    value {
      list {
        shape {
        }
      }
    }
  }
  attr {
    key: "dtype"
    value {
      type: DT_INT64
    }
  }
  attr {
    key: "value"
    value {
      tensor {
        dtype: DT_INT64
        tensor_shape {
        }
        int64_val: 0
      }
    }
  }
}
node {
  name: "global_step/add"
  op: "Add"
  input: "global_step/cond/Merge"
  input: "global_step/add/y"
  attr {
    key: "T"
    value {
      type: DT_INT64
    }
  }
  attr {
    key: "_output_shapes"
    value {
      list {
        shape {
        }
      }
    }
  }
}
node {
  name: "Const"
  op: "Const"
  device: "/device:CPU:0"
  attr {
    key: "_output_shapes"
    value {
      list {
        shape {
          dim {
            size: 712
          }
        }
      }
    }
  }
  attr {
    key: "dtype"
    value {
      type: DT_INT64
    }
  }
  attr {
    key: "value"
    value {
      tensor {
        dtype: DT_INT64
        tensor_shape {
          dim {
            size: 712
          }
        }
        tensor_content: "\000\000\000\000\000\000\000\000\000\000\000\000\000\000\000\000\000\000\000\000\000\000\000\000\001\000\000\000\000\000\000\000\001\000\000\000\000\000\000\000\000\000\000\000\000\000\000\000\001\000\000\000\000\000\000\000\001\000\000\000\000\000\000\000\000\000\000\000\000\000\000\000\001\000\000\000\000\000\000\000\001\000\000\000\000\000\000\000\000\000\000\000\000\000\000\000\000\000\000\000\000\000\000\000\000\000\000\000\000\000\000\000\001\000\000\000\000\000\000\000\000\000\000\000\000\000\000\000\000\000\000\000\000\000\000\000\000\000\000\000\000\000\000\000\001\000\000\000\000\000\000\000\000\000\000\000\000\000\000\000\000\000\000\000\000\000\000\000\000\000\000\000\000\000\000\000\000\000\000\000\000\000\000\000\001\000\000\000\000\000\000\000\000\000\000\000\000\000\000\000\001\000\000\000\000\000\000\000\001\000\000\000\000\000\000\000\000\000\000\000\000\000\000\000\000\000\000\000\000\000\000\000\000\000\000\000\000\000\000\000\001\000\000\000\000\000\000\000\001\000\000\000\000\000\000\000\000\000\000\000\000\000\000\000\001\000\000\000\000\000\000\000\001\000\000\000\000\000\000\000\000\000\000\000\000\000\000\000\001\000\000\000\000\000\000\000\000\000\000\000\000\000\000\000\000\000\000\000\000\000\000\000\000\000\000\000\000\000\000\000\000\000\000\000\000\000\000\000\000\000\000\000\000\000\000\000\001\000\000\000\000\000\000\000\000\000\000\000\000\000\000\000\001\000\000\000\000\000\000\000\001\000\000\000\000\000\000\000\000\000\000\000\000\000\000\000\000\000\000\000\000\000\000\000\001\000\000\000\000\000\000\000\000\000\000\000\000\000\000\000\001\000\000\000\000\000\000\000\000\000\000\000\000\000\000\000\001\000\000\000\000\000\000\000\000\000\000\000\000\000\000\000\001\000\000\000\000\000\000\000\000\000\000\000\000\000\000\000\001\000\000\000\000\000\000\000\001\000\000\000\000\000\000\000\000\000\000\000\000\000\000\000\000\000\000\000\000\000\000\000\001\000\000\000\000\000\000\000\001\000\000\000\000\000\000\000\000\000\000\000\000\000\000\000\001\000\000\000\000\000\000\000\000\000\000\000\000\000\000\000\001\000\000\000\000\000\000\000\000\000\000\000\000\000\000\000\001\000\000\000\000\000\000\000\001\000\000\000\000\000\000\000\000\000\000\000\000\000\000\000\001\000\000\000\000\000\000\000\001\000\000\000\000\000\000\000\000\000\000\000\000\000\000\000\000\000\000\000\000\000\000\000\001\000\000\000\000\000\000\000\000\000\000\000\000\000\000\000\000\000\000\000\000\000\000\000\000\000\000\000\000\000\000\000\000\000\000\000\000\000\000\000\001\000\000\000\000\000\000\000\000\000\000\000\000\000\000\000\000\000\000\000\000\000\000\000\001\000\000\000\000\000\000\000\000\000\000\000\000\000\000\000\000\000\000\000\000\000\000\000\000\000\000\000\000\000\000\000\000\000\000\000\000\000\000\000\000\000\000\000\000\000\000\000\001\000\000\000\000\000\000\000\000\000\000\000\000\000\000\000\001\000\000\000\000\000\000\000\000\000\000\000\000\000\000\000\000\000\000\000\000\000\000\000\001\000\000\000\000\000\000\000\000\000\000\000\000\000\000\000\000\000\000\000\000\000\000\000\001\000\000\000\000\000\000\000\001\000\000\000\000\000\000\000\001\000\000\000\000\000\000\000\000\000\000\000\000\000\000\000\001\000\000\000\000\000\000\000\000\000\000\000\000\000\000\000\000\000\000\000\000\000\000\000\000\000\000\000\000\000\000\000\000\000\000\000\000\000\000\000\000\000\000\000\000\000\000\000\000\000\000\000\000\000\000\000\001\000\000\000\000\000\000\000\000\000\000\000\000\000\000\000\000\000\000\000\000\000\000\000\001\000\000\000\000\000\000\000\000\000\000\000\000\000\000\000\001\000\000\000\000\000\000\000\000\000\000\000\000\000\000\000\000\000\000\000\000\000\000\000\000\000\000\000\000\000\000\000\000\000\000\000\000\000\000\000\001\000\000\000\000\000\000\000\000\000\000\000\000\000\000\000\000\000\000\000\000\000\000\000\000\000\000\000\000\000\000\000\001\000\000\000\000\000\000\000\000\000\000\000\000\000\000\000\001\000\000\000\000\000\000\000\001\000\000\000\000\000\000\000\000\000\000\000\000\000\000\000\001\000\000\000\000\000\000\000\000\000\000\000\000\000\000\000\000\000\000\000\000\000\000\000\000\000\000\000\000\000\000\000\000\000\000\000\000\000\000\000\000\000\000\000\000\000\000\000\001\000\000\000\000\000\000\000\000\000\000\000\000\000\000\000\000\000\000\000\000\000\000\000\000\000\000\000\000\000\000\000\000\000\000\000\000\000\000\000\000\000\000\000\000\000\000\000\000\000\000\000\000\000\000\000\001\000\000\000\000\000\000\000\000\000\000\000\000\000\000\000\000\000\000\000\000\000\000\000\001\000\000\000\000\000\000\000\000\000\000\000\000\000\000\000\000\000\000\000\000\000\000\000\000\000\000\000\000\000\000\000\000\000\000\000\000\000\000\000\000\000\000\000\000\000\000\000\001\000\000\000\000\000\000\000\001\000\000\000\000\000\000\000\001\000\000\000\000\000\000\000\001\000\000\000\000\000\000\000\001\000\000\000\000\000\000\000\000\000\000\000\000\000\000\000\000\000\000\000\000\000\000\000\001\000\000\000\000\000\000\000\001\000\000\000\000\000\000\000\000\000\000\000\000\000\000\000\000\000\000\000\000\000\000\000\001\000\000\000\000\000\000\000\000\000\000\000\000\000\000\000\000\000\000\000\000\000\000\000\001\000\000\000\000\000\000\000\001\000\000\000\000\000\000\000\000\000\000\000\000\000\000\000\000\000\000\000\000\000\000\000\000\000\000\000\000\000\000\000\000\000\000\000\000\000\000\000\000\000\000\000\000\000\000\000\001\000\000\000\000\000\000\000\001\000\000\000\000\000\000\000\000\000\000\000\000\000\000\000\000\000\000\000\000\000\000\000\000\000\000\000\000\000\000\000\000\000\000\000\000\000\000\000\000\000\000\000\000\000\000\000\000\000\000\000\000\000\000\000\000\000\000\000\000\000\000\000\001\000\000\000\000\000\000\000\001\000\000\000\000\000\000\000\000\000\000\000\000\000\000\000\000\000\000\000\000\000\000\000\001\000\000\000\000\000\000\000\000\000\000\000\000\000\000\000\001\000\000\000\000\000\000\000\000\000\000\000\000\000\000\000\001\000\000\000\000\000\000\000\000\000\000\000\000\000\000\000\001\000\000\000\000\000\000\000\000\000\000\000\000\000\000\000\000\000\000\000\000\000\000\000\000\000\000\000\000\000\000\000\000\000\000\000\000\000\000\000\000\000\000\000\000\000\000\000\001\000\000\000\000\000\000\000\000\000\000\000\000\000\000\000\000\000\000\000\000\000\000\000\000\000\000\000\000\000\000\000\001\000\000\000\000\000\000\000\000\000\000\000\000\000\000\000\000\000\000\000\000\000\000\000\001\000\000\000\000\000\000\000\000\000\000\000\000\000\000\000\001\000\000\000\000\000\000\000\000\000\000\000\000\000\000\000\001\000\000\000\000\000\000\000\000\000\000\000\000\000\000\000\000\000\000\000\000\000\000\000\000\000\000\000\000\000\000\000\000\000\000\000\000\000\000\000\001\000\000\000\000\000\000\000\001\000\000\000\000\000\000\000\000\000\000\000\000\000\000\000\000\000\000\000\000\000\000\000\001\000\000\000\000\000\000\000\001\000\000\000\000\000\000\000\001\000\000\000\000\000\000\000\000\000\000\000\000\000\000\000\000\000\000\000\000\000\000\000\001\000\000\000\000\000\000\000\000\000\000\000\000\000\000\000\000\000\000\000\000\000\000\000\000\000\000\000\000\000\000\000\000\000\000\000\000\000\000\000\001\000\000\000\000\000\000\000\000\000\000\000\000\000\000\000\001\000\000\000\000\000\000\000\000\000\000\000\000\000\000\000\000\000\000\000\000\000\000\000\000\000\000\000\000\000\000\000\000\000\000\000\000\000\000\000\001\000\000\000\000\000\000\000\000\000\000\000\000\000\000\000\001\000\000\000\000\000\000\000\001\000\000\000\000\000\000\000\000\000\000\000\000\000\000\000\000\000\000\000\000\000\000\000\000\000\000\000\000\000\000\000\001\000\000\000\000\000\000\000\000\000\000\000\000\000\000\000\000\000\000\000\000\000\000\000\001\000\000\000\000\000\000\000\001\000\000\000\000\000\000\000\000\000\000\000\000\000\000\000\000\000\000\000\000\000\000\000\001\000\000\000\000\000\000\000\001\000\000\000\000\000\000\000\001\000\000\000\000\000\000\000\000\000\000\000\000\000\000\000\000\000\000\000\000\000\000\000\001\000\000\000\000\000\000\000\001\000\000\000\000\000\000\000\000\000\000\000\000\000\000\000\000\000\000\000\000\000\000\000\001\000\000\000\000\000\000\000\001\000\000\000\000\000\000\000\000\000\000\000\000\000\000\000\000\000\000\000\000\000\000\000\001\000\000\000\000\000\000\000\001\000\000\000\000\000\000\000\000\000\000\000\000\000\000\000\000\000\000\000\000\000\000\000\000\000\000\000\000\000\000\000\000\000\000\000\000\000\000\000\000\000\000\000\000\000\000\000\000\000\000\000\000\000\000\000\000\000\000\000\000\000\000\000\001\000\000\000\000\000\000\000\001\000\000\000\000\000\000\000\000\000\000\000\000\000\000\000\001\000\000\000\000\000\000\000\001\000\000\000\000\000\000\000\001\000\000\000\000\000\000\000\001\000\000\000\000\000\000\000\000\000\000\000\000\000\000\000\000\000\000\000\000\000\000\000\001\000\000\000\000\000\000\000\000\000\000\000\000\000\000\000\001\000\000\000\000\000\000\000\001\000\000\000\000\000\000\000\001\000\000\000\000\000\000\000\000\000\000\000\000\000\000\000\000\000\000\000\000\000\000\000\001\000\000\000\000\000\000\000\000\000\000\000\000\000\000\000\001\000\000\000\000\000\000\000\001\000\000\000\000\000\000\000\000\000\000\000\000\000\000\000\001\000\000\000\000\000\000\000\000\000\000\000\000\000\000\000\000\000\000\000\000\000\000\000\000\000\000\000\000\000\000\000\000\000\000\000\000\000\000\000\001\000\000\000\000\000\000\000\000\000\000\000\000\000\000\000\000\000\000\000\000\000\000\000\000\000\000\000\000\000\000\000\001\000\000\000\000\000\000\000\000\000\000\000\000\000\000\000\000\000\000\000\000\000\000\000\000\000\000\000\000\000\000\000\000\000\000\000\000\000\000\000\000\000\000\000\000\000\000\000\001\000\000\000\000\000\000\000\000\000\000\000\000\000\000\000\001\000\000\000\000\000\000\000\001\000\000\000\000\000\000\000\000\000\000\000\000\000\000\000\000\000\000\000\000\000\000\000\000\000\000\000\000\000\000\000\000\000\000\000\000\000\000\000\001\000\000\000\000\000\000\000\000\000\000\000\000\000\000\000\000\000\000\000\000\000\000\000\001\000\000\000\000\000\000\000\000\000\000\000\000\000\000\000\001\000\000\000\000\000\000\000\000\000\000\000\000\000\000\000\001\000\000\000\000\000\000\000\000\000\000\000\000\000\000\000\000\000\000\000\000\000\000\000\001\000\000\000\000\000\000\000\000\000\000\000\000\000\000\000\000\000\000\000\000\000\000\000\000\000\000\000\000\000\000\000\001\000\000\000\000\000\000\000\000\000\000\000\000\000\000\000\000\000\000\000\000\000\000\000\001\000\000\000\000\000\000\000\000\000\000\000\000\000\000\000\000\000\000\000\000\000\000\000\000\000\000\000\000\000\000\000\000\000\000\000\000\000\000\000\000\000\000\000\000\000\000\000\000\000\000\000\000\000\000\000\001\000\000\000\000\000\000\000\000\000\000\000\000\000\000\000\001\000\000\000\000\000\000\000\000\000\000\000\000\000\000\000\000\000\000\000\000\000\000\000\000\000\000\000\000\000\000\000\000\000\000\000\000\000\000\000\000\000\000\000\000\000\000\000\000\000\000\000\000\000\000\000\000\000\000\000\000\000\000\000\001\000\000\000\000\000\000\000\000\000\000\000\000\000\000\000\000\000\000\000\000\000\000\000\001\000\000\000\000\000\000\000\001\000\000\000\000\000\000\000\000\000\000\000\000\000\000\000\000\000\000\000\000\000\000\000\000\000\000\000\000\000\000\000\001\000\000\000\000\000\000\000\000\000\000\000\000\000\000\000\000\000\000\000\000\000\000\000\001\000\000\000\000\000\000\000\001\000\000\000\000\000\000\000\001\000\000\000\000\000\000\000\000\000\000\000\000\000\000\000\000\000\000\000\000\000\000\000\000\000\000\000\000\000\000\000\000\000\000\000\000\000\000\000\000\000\000\000\000\000\000\000\001\000\000\000\000\000\000\000\001\000\000\000\000\000\000\000\001\000\000\000\000\000\000\000\001\000\000\000\000\000\000\000\001\000\000\000\000\000\000\000\001\000\000\000\000\000\000\000\000\000\000\000\000\000\000\000\001\000\000\000\000\000\000\000\000\000\000\000\000\000\000\000\001\000\000\000\000\000\000\000\000\000\000\000\000\000\000\000\000\000\000\000\000\000\000\000\001\000\000\000\000\000\000\000\000\000\000\000\000\000\000\000\001\000\000\000\000\000\000\000\000\000\000\000\000\000\000\000\001\000\000\000\000\000\000\000\001\000\000\000\000\000\000\000\000\000\000\000\000\000\000\000\001\000\000\000\000\000\000\000\000\000\000\000\000\000\000\000\000\000\000\000\000\000\000\000\000\000\000\000\000\000\000\000\001\000\000\000\000\000\000\000\000\000\000\000\000\000\000\000\000\000\000\000\000\000\000\000\000\000\000\000\000\000\000\000\000\000\000\000\000\000\000\000\001\000\000\000\000\000\000\000\000\000\000\000\000\000\000\000\000\000\000\000\000\000\000\000\001\000\000\000\000\000\000\000\001\000\000\000\000\000\000\000\001\000\000\000\000\000\000\000\000\000\000\000\000\000\000\000\000\000\000\000\000\000\000\000\001\000\000\000\000\000\000\000\001\000\000\000\000\000\000\000\000\000\000\000\000\000\000\000\000\000\000\000\000\000\000\000\000\000\000\000\000\000\000\000\000\000\000\000\000\000\000\000\001\000\000\000\000\000\000\000\000\000\000\000\000\000\000\000\001\000\000\000\000\000\000\000\001\000\000\000\000\000\000\000\001\000\000\000\000\000\000\000\000\000\000\000\000\000\000\000\000\000\000\000\000\000\000\000\000\000\000\000\000\000\000\000\000\000\000\000\000\000\000\000\000\000\000\000\000\000\000\000\001\000\000\000\000\000\000\000\000\000\000\000\000\000\000\000\000\000\000\000\000\000\000\000\001\000\000\000\000\000\000\000\000\000\000\000\000\000\000\000\001\000\000\000\000\000\000\000\000\000\000\000\000\000\000\000\001\000\000\000\000\000\000\000\000\000\000\000\000\000\000\000\000\000\000\000\000\000\000\000\001\000\000\000\000\000\000\000\001\000\000\000\000\000\000\000\001\000\000\000\000\000\000\000\000\000\000\000\000\000\000\000\000\000\000\000\000\000\000\000\001\000\000\000\000\000\000\000\000\000\000\000\000\000\000\000\000\000\000\000\000\000\000\000\001\000\000\000\000\000\000\000\001\000\000\000\000\000\000\000\000\000\000\000\000\000\000\000\001\000\000\000\000\000\000\000\001\000\000\000\000\000\000\000\000\000\000\000\000\000\000\000\000\000\000\000\000\000\000\000\000\000\000\000\000\000\000\000\000\000\000\000\000\000\000\000\000\000\000\000\000\000\000\000\001\000\000\000\000\000\000\000\000\000\000\000\000\000\000\000\000\000\000\000\000\000\000\000\000\000\000\000\000\000\000\000\001\000\000\000\000\000\000\000\000\000\000\000\000\000\000\000\000\000\000\000\000\000\000\000\000\000\000\000\000\000\000\000\000\000\000\000\000\000\000\000\000\000\000\000\000\000\000\000\000\000\000\000\000\000\000\000\000\000\000\000\000\000\000\000\000\000\000\000\000\000\000\000\000\000\000\000\000\000\000\000\000\000\000\000\000\000\000\000\001\000\000\000\000\000\000\000\000\000\000\000\000\000\000\000\001\000\000\000\000\000\000\000\000\000\000\000\000\000\000\000\000\000\000\000\000\000\000\000\001\000\000\000\000\000\000\000\000\000\000\000\000\000\000\000\000\000\000\000\000\000\000\000\001\000\000\000\000\000\000\000\000\000\000\000\000\000\000\000\000\000\000\000\000\000\000\000\001\000\000\000\000\000\000\000\001\000\000\000\000\000\000\000\001\000\000\000\000\000\000\000\000\000\000\000\000\000\000\000\001\000\000\000\000\000\000\000\000\000\000\000\000\000\000\000\001\000\000\000\000\000\000\000\001\000\000\000\000\000\000\000\001\000\000\000\000\000\000\000\000\000\000\000\000\000\000\000\000\000\000\000\000\000\000\000\000\000\000\000\000\000\000\000\000\000\000\000\000\000\000\000\001\000\000\000\000\000\000\000\000\000\000\000\000\000\000\000\000\000\000\000\000\000\000\000\000\000\000\000\000\000\000\000\000\000\000\000\000\000\000\000\000\000\000\000\000\000\000\000\000\000\000\000\000\000\000\000\000\000\000\000\000\000\000\000\000\000\000\000\000\000\000\000\000\000\000\000\000\000\000\000\001\000\000\000\000\000\000\000\000\000\000\000\000\000\000\000\001\000\000\000\000\000\000\000\001\000\000\000\000\000\000\000\000\000\000\000\000\000\000\000\000\000\000\000\000\000\000\000\000\000\000\000\000\000\000\000\000\000\000\000\000\000\000\000\000\000\000\000\000\000\000\000\000\000\000\000\000\000\000\000\001\000\000\000\000\000\000\000\000\000\000\000\000\000\000\000\000\000\000\000\000\000\000\000\001\000\000\000\000\000\000\000\000\000\000\000\000\000\000\000\000\000\000\000\000\000\000\000\000\000\000\000\000\000\000\000\001\000\000\000\000\000\000\000\001\000\000\000\000\000\000\000\000\000\000\000\000\000\000\000\000\000\000\000\000\000\000\000\000\000\000\000\000\000\000\000\001\000\000\000\000\000\000\000\000\000\000\000\000\000\000\000\001\000\000\000\000\000\000\000\001\000\000\000\000\000\000\000\001\000\000\000\000\000\000\000\001\000\000\000\000\000\000\000\000\000\000\000\000\000\000\000\001\000\000\000\000\000\000\000\000\000\000\000\000\000\000\000\000\000\000\000\000\000\000\000\001\000\000\000\000\000\000\000\001\000\000\000\000\000\000\000\000\000\000\000\000\000\000\000\000\000\000\000\000\000\000\000\001\000\000\000\000\000\000\000\000\000\000\000\000\000\000\000\001\000\000\000\000\000\000\000\001\000\000\000\000\000\000\000\000\000\000\000\000\000\000\000\001\000\000\000\000\000\000\000\001\000\000\000\000\000\000\000\000\000\000\000\000\000\000\000\000\000\000\000\000\000\000\000\000\000\000\000\000\000\000\000\001\000\000\000\000\000\000\000\000\000\000\000\000\000\000\000\001\000\000\000\000\000\000\000\000\000\000\000\000\000\000\000\000\000\000\000\000\000\000\000\000\000\000\000\000\000\000\000\000\000\000\000\000\000\000\000\000\000\000\000\000\000\000\000\000\000\000\000\000\000\000\000\000\000\000\000\000\000\000\000\000\000\000\000\000\000\000\000\001\000\000\000\000\000\000\000\001\000\000\000\000\000\000\000\001\000\000\000\000\000\000\000\001\000\000\000\000\000\000\000\000\000\000\000\000\000\000\000\001\000\000\000\000\000\000\000\001\000\000\000\000\000\000\000\001\000\000\000\000\000\000\000\001\000\000\000\000\000\000\000\000\000\000\000\000\000\000\000\001\000\000\000\000\000\000\000\000\000\000\000\000\000\000\000\001\000\000\000\000\000\000\000\000\000\000\000\000\000\000\000\001\000\000\000\000\000\000\000\000\000\000\000\000\000\000\000\001\000\000\000\000\000\000\000\000\000\000\000\000\000\000\000\000\000\000\000\000\000\000\000\000\000\000\000\000\000\000\000\000\000\000\000\000\000\000\000\001\000\000\000\000\000\000\000\001\000\000\000\000\000\000\000\000\000\000\000\000\000\000\000\001\000\000\000\000\000\000\000\001\000\000\000\000\000\000\000\000\000\000\000\000\000\000\000\001\000\000\000\000\000\000\000\001\000\000\000\000\000\000\000\000\000\000\000\000\000\000\000\000\000\000\000\000\000\000\000\000\000\000\000\000\000\000\000\000\000\000\000\000\000\000\000\000\000\000\000\000\000\000\000\001\000\000\000\000\000\000\000\000\000\000\000\000\000\000\000\001\000\000\000\000\000\000\000\001\000\000\000\000\000\000\000\000\000\000\000\000\000\000\000\000\000\000\000\000\000\000\000\000\000\000\000\000\000\000\000\000\000\000\000\000\000\000\000\001\000\000\000\000\000\000\000\001\000\000\000\000\000\000\000\001\000\000\000\000\000\000\000\000\000\000\000\000\000\000\000\001\000\000\000\000\000\000\000\000\000\000\000\000\000\000\000\001\000\000\000\000\000\000\000\000\000\000\000\000\000\000\000\000\000\000\000\000\000\000\000\000\000\000\000\000\000\000\000\000\000\000\000\000\000\000\000\000\000\000\000\000\000\000\000\001\000\000\000\000\000\000\000\000\000\000\000\000\000\000\000\000\000\000\000\000\000\000\000\001\000\000\000\000\000\000\000\000\000\000\000\000\000\000\000\000\000\000\000\000\000\000\000\000\000\000\000\000\000\000\000\001\000\000\000\000\000\000\000\001\000\000\000\000\000\000\000\000\000\000\000\000\000\000\000\000\000\000\000\000\000\000\000\000\000\000\000\000\000\000\000\000\000\000\000\000\000\000\000\000\000\000\000\000\000\000\000\000\000\000\000\000\000\000\000\000\000\000\000\000\000\000\000\000\000\000\000\000\000\000\000\000\000\000\000\000\000\000\000\000\000\000\000\000\000\000\000\000\000\000\000\000\000\000\000\000\000\000\000\000\000\000\000\000\000\000\000\000\000\000\000\001\000\000\000\000\000\000\000\001\000\000\000\000\000\000\000\000\000\000\000\000\000\000\000\000\000\000\000\000\000\000\000\001\000\000\000\000\000\000\000\001\000\000\000\000\000\000\000\000\000\000\000\000\000\000\000\001\000\000\000\000\000\000\000\001\000\000\000\000\000\000\000\000\000\000\000\000\000\000\000\000\000\000\000\000\000\000\000\001\000\000\000\000\000\000\000\001\000\000\000\000\000\000\000\001\000\000\000\000\000\000\000\000\000\000\000\000\000\000\000\000\000\000\000\000\000\000\000\001\000\000\000\000\000\000\000\001\000\000\000\000\000\000\000\001\000\000\000\000\000\000\000\000\000\000\000\000\000\000\000\000\000\000\000\000\000\000\000\000\000\000\000\000\000\000\000\000\000\000\000\000\000\000\000\000\000\000\000\000\000\000\000\000\000\000\000\000\000\000\000\000\000\000\000\000\000\000\000\000\000\000\000\000\000\000\000\001\000\000\000\000\000\000\000\001\000\000\000\000\000\000\000\000\000\000\000\000\000\000\000\000\000\000\000\000\000\000\000\001\000\000\000\000\000\000\000\001\000\000\000\000\000\000\000\001\000\000\000\000\000\000\000\000\000\000\000\000\000\000\000\000\000\000\000\000\000\000\000\000\000\000\000\000\000\000\000\001\000\000\000\000\000\000\000\001\000\000\000\000\000\000\000\001\000\000\000\000\000\000\000\001\000\000\000\000\000\000\000\001\000\000\000\000\000\000\000\000\000\000\000\000\000\000\000\001\000\000\000\000\000\000\000\001\000\000\000\000\000\000\000\000\000\000\000\000\000\000\000\000\000\000\000\000\000\000\000\000\000\000\000\000\000\000\000\000\000\000\000\000\000\000\000\001\000\000\000\000\000\000\000\000\000\000\000\000\000\000\000\000\000\000\000\000\000\000\000\001\000\000\000\000\000\000\000\000\000\000\000\000\000\000\000\001\000\000\000\000\000\000\000\000\000\000\000\000\000\000\000\000\000\000\000\000\000\000\000\000\000\000\000\000\000\000\000\000\000\000\000\000\000\000\000\001\000\000\000\000\000\000\000\001\000\000\000\000\000\000\000\000\000\000\000\000\000\000\000\000\000\000\000\000\000\000\000\000\000\000\000\000\000\000\000\000\000\000\000\000\000\000\000\000\000\000\000\000\000\000\000\000\000\000\000\000\000\000\000\001\000\000\000\000\000\000\000\000\000\000\000\000\000\000\000\000\000\000\000\000\000\000\000\000\000\000\000\000\000\000\000\001\000\000\000\000\000\000\000\000\000\000\000\000\000\000\000\000\000\000\000\000\000\000\000\000\000\000\000\000\000\000\000\000\000\000\000\000\000\000\000\000\000\000\000\000\000\000\000\001\000\000\000\000\000\000\000\000\000\000\000\000\000\000\000\001\000\000\000\000\000\000\000\000\000\000\000\000\000\000\000\001\000\000\000\000\000\000\000\000\000\000\000\000\000\000\000\000\000\000\000\000\000\000\000\000\000\000\000\000\000\000\000\000\000\000\000\000\000\000\000"
      }
    }
  }
}
node {
  name: "Const_1"
  op: "Const"
  device: "/device:CPU:0"
  attr {
    key: "_output_shapes"
    value {
      list {
        shape {
          dim {
            size: 712
          }
        }
      }
    }
  }
  attr {
    key: "dtype"
    value {
      type: DT_DOUBLE
    }
  }
  attr {
    key: "value"
    value {
      tensor {
        dtype: DT_DOUBLE
        tensor_shape {
          dim {
            size: 712
          }
        }
        tensor_content: "\000\000\000\000\000\000\034@\000\000\000\000\000\200@@\000\000\000\000\000\0006@\000\000\000\000\000\0008@\000\000\000\000\000\000\000\000\000\000\000\000\000\000\000\000\000\000\000\000\000\0006@\000\000\000\000\000\000\030@\000\000\000\000\000\000B@\000\000\000\000\000\000D@\000\000\000\000\000\000:@\000\000\000\000\000\000B@\000\000\000\000\000\200Q@\000\000\000\000\000\000$@\000\000\000\000\000\000\"@\000\000\000\000\000\000\000\000\000\000\000\000\000\0003@\000\000\000\000\000\200C@\000\000\000\000\000\200I@\000\000\000\000\000\000\034@\000\000\000\000\000\0005@\000\000\000\000\000\000&@\000\000\000\000\000\000\000\000\000\000\000\000\000\000(@\000\000\000\000\000\0005@\000\000\000\000\000\000?@\000\000\000\000\000\200A@\000\000\000\000\000\000\000\000\000\000\000\000\000\0003@\000\000\000\000\000\000B@\000\000\000\000\000\000\000\000\000\000\000\000\000\200@@\000\000\000\000\000\000K@\000\000\000\000\000\200O@\000\000\000\000\000\200C@\000\000\000\000\000\0004@\000\000\000\000\000\000*@\000\000\000\000\000\000\000\000\000\000\000\000\000\000\000\000\000\000\000\000\000\200N@\000\000\000\000\000\200C@\000\000\000\000\000\000\000\000\000\000\000\000\000\200D@\000\000\000\000\000\200@@\000\000\000\000\000\0009@\000\000\000\000\000\000\"@\000\000\000\000\000\000\000@\000\000\000\000\000\240Q@\000\000\000\000\000\000D@\000\000\000\000\000\0005@\000\000\000\000\000\000F@\000\000\000\000\000\000?@q=\n\327\243p\355?\000\000\000\000\000\0004@\000\000\000\000\000\0004@\000\000\000\000\000\200I@\000\000\000\000\000\000=@\000\000\000\000\000\000\000\000\000\000\000\000\000@D@\000\000\000\000\000@B@\000\000\000\000\000\000M@\000\000\000\000\000\200@@\000\000\000\000\000\000\000\000\000\000\000\000\000\0005@\000\000\000\000\000\000\000\000\000\000\000\000\000\000\000\000\000\000\000\000\000\000E@\000\000\000\000\000\000A@\000\000\000\000\000\000\000\000\000\000\000\000\000\000=@\000\000\000\000\000\0008@\000\000\000\000\000\000:@\000\000\000\000\000\0009@\000\000\000\000\000\000\010@\000\000\000\000\000\000?@\000\000\000\000\000\000<@\000\000\000\000\000\000\000\000\000\000\000\000\000\000\000\000\000\000\000\000\000\000B@\000\000\000\000\000\200F@\000\000\000\000\000\000\000\000\000\000\000\000\000\0009@\000\000\000\000\000\0009@\000\000\000\000\000\000\000\000\000\000\000\000\000\000G@\000\000\000\000\000\200B@\000\000\000\000\000\0009@\000\000\000\000\000\0002@\000\000\000\000\000\0001@\000\000\000\000\000\300F@\000\000\000\000\000\000\000@\000\000\000\000\000\000\000\000\000\000\000\000\000\000\000\000\000\000\000\000\000\000\000\000\000\000\000\000\000\000H@\000\000\000\000\000\000\000\000\000\000\000\000\000\200@@\000\000\000\000\000\000=@\000\000\000\000\000\000@@\000\000\000\000\000\0002@\000\000\000\000\000\0009@\000\000\000\000\000\200@@\000\000\000\000\000\200>@\000\000\000\000\000\000;@\000\000\000\000\000\0004@\000\000\000\000\000\000@@\000\000\000\000\000\000A@\000\000\000\000\000\000\000\000\000\000\000\000\000\000\000\000\000\000\000\000\000\000\000\000\000\000\000\000\000\000 @\000\000\000\000\000\300Q@\000\000\000\000\000\200C@\000\000\000\000\000\0003@\000\000\000\000\000\300K@\000\000\000\000\000\000-@\000\000\000\000\000\200E@\000\000\000\000\000\200E@\000\000\000\000\000\000\000\000\000\000\000\000\000\000\000\000\000\000\000\000\000\000\"@\000\000\000\000\000\000?@\000\000\000\000\000\000\000\000\000\000\000\000\000\0008@\000\000\000\000\000\0003@\000\000\000\000\000\200<@\000\000\000\000\000\000C@\000\000\000\000\000@P@\000\000\000\000\000\000A@\000\000\000\000\000\200P@\000\000\000\000\000\0003@\000\000\000\000\000\000A@\000\000\000\000\000\000?@\000\000\000\000\000\000:@\000\000\000\000\000\000?@\000\000\000\000\000\000D@\000\000\000\000\000\000\000\000\000\000\000\000\000\000?@\000\000\000\000\000\000=@\000\000\000\000\000\000H@\000\000\000\000\000\0004@\000\000\000\000\000\000@@\000\000\000\000\000\000\000\000\000\000\000\000\000\000M@\000\000\000\000\000\000>@\000\000\000\000\000\000@@\000\000\000\000\000\0003@\000\000\000\000\000\000:@\000\000\000\000\000\0006@\000\000\000\000\000\000\360?\000\000\000\000\000\000A@\000\000\000\000\000\000D@\000\000\000\000\000\000E@\000\000\000\000\000\000K@\000\000\000\000\000\0007@\000\000\000\000\000\0005@\000\000\000\000\000\000\000\000\000\000\000\000\000\000.@\000\000\000\000\000\000E@\000\000\000\000\000\000L@\000\000\000\000\000\200A@\000\000\000\000\000\0000@\000\000\000\000\000\000\000\000\000\000\000\000\000\000F@\000\000\000\000\000\000\000\000\000\000\000\000\000\000N@\000\000\000\000\000\0006@\000\000\000\000\000\000\000\000\000\000\000\000\000\0000@\000\000\000\000\000\000;@\000\000\000\000\000\000\000\000\000\000\000\000\000\000F@\000\000\000\000\000\0005@\000\000\000\000\000\200F@\000\000\000\000\000\0005@\000\000\000\000\000\000A@\000\000\000\000\000\000@@\000\000\000\000\000\0007@\000\000\000\000\000\000@@\000\000\000\000\000\200D@\000\000\000\000\000@A@\000\000\000\000\000\000J@\000\000\000\000\000\000\000\000\000\000\000\000\000\0005@\000\000\000\000\000\000=@\000\000\000\000\000\200H@\000\000\000\000\000\0004@\000\000\000\000\000\000F@\000\000\000\000\000\200C@\000\000\000\000\000\000=@\000\000\000\000\000\000:@\000\000\000\000\000\300F@\000\000\000\000\000\000:@\000\000\000\000\000\2004@\000\000\000\000\000\000D@\000\000\000\000\000\000F@\000\000\000\000\000\000I@\000\000\000\000\000\000\"@\000\000\000\000\000\000\030@\000\000\000\000\000\000\020@\000\000\000\000\000\000K@\000\000\000\000\000\000 @\000\000\000\000\000\000D@\000\000\000\000\000\0002@\000\000\000\000\000@P@\000\000\000\000\000\000;@\000\000\000\000\000\000C@\000\000\000\000\000\200G@\000\000\000\000\000\0006@\000\000\000\000\000\000=@\000\000\000\000\000\000\034@\000\000\000\000\000\0005@\000\000\000\000\000\2008@\000\000\000\000\000\000>@\000\000\000\000\000\000E@\000\000\000\000\000\000\020@\000\000\000\000\000\000\000\000\000\000\000\000\000\0006@\000\000\000\000\000\000>@\000\000\000\000\000\000B@\000\000\000\000\000\0002@\000\000\000\000\000\0005@\000\000\000\000\000\000:@\000\000\000\000\000\000C@\000\000\000\000\000\000J@\000\000\000\000\000\000\000\000\000\000\000\000\000\0000@\000\000\000\000\000\000\000\000\000\000\000\000\000\000\000\000\000\000\000\000\000\000O@\000\000\000\000\000\000\000\000\000\000\000\000\000\000;@\000\000\000\000\000\000:@\000\000\000\000\000\0002@\000\000\000\000\000\000M@\000\000\000\000\000\200C@\000\000\000\000\000\0009@\000\000\000\000\000\200<@\000\000\000\000\000\0006@\000\000\000\000\000\000\000\000\000\000\000\000\000\000H@\000\000\000\000\000\200C@\000\000\000\000\000\000\000\000\000\000\000\000\000\000\000\000\000\000\000\000\000\200I@\000\000\000\000\000\000*@\000\000\000\000\000\000\000\000\000\000\000\000\000\000\000\000\000\000\000\000\000\0000@\000\000\000\000\000\0006@\000\000\000\000\000\0001@\000\000\000\000\000\000;@\000\000\000\000\000\000\000@\000\000\000\000\000\0002@\000\000\000\000\000\200@@\000\000\000\000\000\200@@\000\000\000\000\000\000C@\000\000\000\000\000\0005@\000\000\000\000\000\0002@\000\000\000\000\000\000B@\000\000\000\000\000\000B@\000\000\000\000\000\000N@\000\000\000\000\000\200D@\000\000\000\000\000\000:@\000\000\000\000\000\0008@\000\000\000\000\000\000;@\000\000\000\000\000\000\000\000\000\000\000\000\000\000O@\000\000\000\000\000\000\000\000\000\000\000\000\000\000<@\000\000\000\000\000\000\000\000\000\000\000\000\000\200F@\000\000\000\000\000\0008@\000\000\000\000\000\000>@\000\000\000\000\000\000\000\000\000\000\000\000\000\000>@\000\000\000\000\000\000\000\000\000\000\000\000\000\000=@\000\000\000\000\000\000\000\000\000\000\000\000\000@@@\000\000\000\000\000\000\010@\000\000\000\000\000\0003@\000\000\000\000\000\000<@\000\000\000\000\000\000D@\000\000\000\000\000\0005@\000\000\000\000\000\000\000\000\000\000\000\000\000\200@@\000\000\000\000\000\0008@\000\000\000\000\000\000B@\000\000\000\000\000\000=@\000\000\000\000\000\000G@\000\000\000\000\000\0007@\000\000\000\000\000\000\000\000\000\000\000\000\000\0009@\000\000\000\000\000\000<@\000\000\000\000\000\200E@\000\000\000\000\000\000\000\000\341z\024\256G\341\332?\000\000\000\000\000\000\000\000\000\000\000\000\000\0004@\000\000\000\000\000\000?@\000\000\000\000\000\000\000\000\000\000\000\000\000\000,@\000\000\000\000\000\000E@\000\000\000\000\000\000\360?\000\000\000\000\000\000<@\000\000\000\000\000\0002@\000\000\000\000\000\0004@\000\000\000\000\000\000\000\000\000\000\000\000\000\000H@\000\000\000\000\000\000\000\000\000\000\000\000\000\000;@\000\000\000\000\000\000\020@\000\000\000\000\000\000<@\000\000\000\000\000\000\000\000\000\000\000\000\000\000\000\000\000\000\000\000\000\000=@\000\000\000\000\000\000\000\000\000\000\000\000\000\000J@\000\000\000\000\000\000K@\000\000\000\000\000\0000@\000\000\000\000\000\200F@\000\000\000\000\000\0006@\000\000\000\000\000\000<@\000\000\000\000\000\000:@\000\000\000\000\000\000H@\000\000\000\000\000\000<@\000\000\000\000\000\000A@\000\000\000\000\000\200H@\000\000\000\000\000\000>@\000\000\000\000\000\000<@\000\000\000\000\000\0004@\000\000\000\000\000\000\000\000\000\000\000\000\000\000\000\000\000\000\000\000\000\0002@\000\000\000\000\000\200A@\000\000\000\000\000@P@\000\000\000\000\000\000B@\000\000\000\000\000\0001@\000\000\000\000\000\000\000\000\000\000\000\000\000\000<@\000\000\000\000\000\000\000\000\000\000\000\000\000\000L@\000\000\000\000\000\0003@\000\000\000\000\000\000\"@\000\000\000\000\000\0008@\000\000\000\000\000\000E@\000\000\000\000\000\000 @\000\000\000\000\000\0005@\000\000\000\000\000\000B@\000\000\000\000\000\0008@\000\000\000\000\000\000;@\000\000\000\000\000\000\000\000\000\000\000\000\000\000\010@\000\000\000\000\000@D@\000\000\000\000\000\000\000\000\000\000\000\000\000\200H@\000\000\000\000\000\000@@\000\000\000\000\000\000?@\000\000\000\000\000\000<@\000\000\000\000\000\200A@\000\000\000\000\000\000\030@\000\000\000\000\000\000\000\000\000\000\000\000\000\0000@\000\000\000\000\000\000\000\000\000\000\000\000\000\000\000\000\000\000\000\000\000\0007@\000\000\000\000\000\200B@q=\n\327\243p\345?\000\000\000\000\000\0007@\000\000\000\000\000\000\000\000\000\000\000\000\000\000E@\000\000\000\000\000\0000@\000\000\000\000\000\000\000\000\000\000\000\000\000\0000@\000\000\000\000\000\000:@\000\000\000\000\000\0006@\000\000\000\000\000\0007@\000\000\000\000\000\000\000\000\000\000\000\000\000\000B@\000\000\000\000\000\000A@\000\000\000\000\000\0009@\000\000\000\000\000\200C@\000\000\000\000\000\000\000\000\000\000\000\000\000\000\000\000\000\000\000\000\000\0001@\000\000\000\000\000\200G@\000\000\000\000\000\000<@\000\000\000\000\000\000\000\000\000\000\000\000\000\000\000\000\000\000\000\000\000\0009@\000\000\000\000\000\000:@\000\000\000\000\000\000\020@\000\000\000\000\000\200C@\000\000\000\000\000\0007@\000\000\000\000\000\200A@\000\000\000\000\000\000H@\000\000\000\000\000\000D@\000\000\000\000\000\0008@\000\000\000\000\000\0005@\000\000\000\000\000\0001@\000\000\000\000\000\200G@\000\000\000\000\000\200L@\000\000\000\000\000\0009@\000\000\000\000\000\0009@\000\000\000\000\000\0000@\000\000\000\000\000\0006@\000\000\000\000\000\000\000@\000\000\000\000\000\000I@\000\000\000\000\000\000E@\000\000\000\000\000\200A@\000\000\000\000\000\0000@\000\000\000\000\000\200G@\000\000\000\000\000\000\000\000\000\000\000\000\000\000<@\000\000\000\000\000\000\000@\000\000\000\000\000\000\000\000\000\000\000\000\000\000\000\000\000\000\000\000\000\0005@\000\000\000\000\000\0008@\000\000\000\000\000\000\000\000\000\000\000\000\000\000<@\000\000\000\000\000\200@@\000\000\000\000\000\0000@\000\000\000\000\000\0004@\000\000\000\000\000\0009@\000\000\000\000\000\000,@\000\000\000\000\000\000>@\000\000\000\000\000\000.@\000\000\000\000\000\0004@\000\000\000\000\000\000C@\000\000\000\000\000\000.@\000\000\000\000\000\000\000\000\000\000\000\000\000\000 @\000\000\000\000\000\0007@\000\000\000\000\000\000J@\000\000\000\000\000\000L@\000\000\000\000\000\0000@\000\000\000\000\000\000;@\000\000\000\000\000\200A@\000\000\000\000\000\000\000\000\000\000\000\000\000\000\000\000\000\000\000\000\000\000>@\000\000\000\000\000\200B@\000\000\000\000\000\000\024@\000\000\000\000\000\000\000\000\000\000\000\000\000\000\000\000\000\000\000\000\000\000\000\000\000\000\000\000\000\000,@\000\000\000\000\000\000<@\000\000\000\000\000\0009@\000\000\000\000\000\0006@\000\000\000\000\000\000\000@\000\000\000\000\000\0008@\000\000\000\000\000\000?@\000\000\000\000\000\000A@\000\000\000\000\000\000\000@\000\000\000\000\000\0003@\000\000\000\000\000\000>@\000\000\000\000\000\0001@\000\000\000\000\000\0009@\000\000\000\000\000\0008@\000\000\000\000\000\000B@\000\000\000\000\000\000>@\000\000\000\000\000\0006@\000\000\000\000\000\000E@\000\000\000\000\000\0008@\000\000\000\000\000\0000@\000\000\000\000\000\000C@\000\000\000\000\000\000\000\000\000\000\000\000\000\000<@\000\000\000\000\000\000B@\000\000\000\000\000\200F@\000\000\000\000\000\000O@\000\000\000\000\000\000\000\000\000\000\000\000\000\0004@\000\000\000\000\000\200O@\000\000\000\000\000\000K@\000\000\000\000\000\000\360?\000\000\000\000\000\200@@\000\000\000\000\000\000\000\000\000\000\000\000\000\000D@\000\000\000\000\000\200D@\000\000\000\000\000\000\000@\000\000\000\000\000\000\000\000\000\000\000\000\000\000\000\000\000\000\000\000\000\200M@\000\000\000\000\000\0008@\000\000\000\000\000\0002@\000\000\000\000\000\200F@\000\000\000\000\000\000&@\000\000\000\000\000\0004@\000\000\000\000\000\0002@\000\000\000\000\000\000:@\000\000\000\000\000\000J@\000\000\000\000\000\0007@\000\000\000\000\000\000\020@\000\000\000\000\000\200B@\000\000\000\000\000\000\000\000\000\000\000\000\000\000=@\000\000\000\000\000\000\000\000\000\000\000\000\000\000$@\000\000\000\000\000\000&@\000\000\000\000\000\200J@\000\000\000\000\000\000\"@\000\000\000\000\000\000\"@\000\000\000\000\000\0004@\000\000\000\000\000\000\000\000\000\000\000\000\000\200C@\000\000\000\000\000\000B@\000\000\000\000\000\0003@\000\000\000\000\000\200A@\000\000\000\000\000\000\000\000\000\000\000\000\000\000\000\000\000\000\000\000\000\000\000\000\000\000\000\000\000\0002@\000\000\000\000\000\200A@\000\000\000\000\000\000&@\000\000\000\000\000\0009@\000\000\000\000\000\0001@\000\000\000\000\000\0000@\000\000\000\000\000\000B@\000\000\000\000\000\000H@\000\000\000\000\000\000<@\000\000\000\000\000\000=@\000\000\000\000\000\000K@\000\000\000\000\000\000N@\000\000\000\000\000\000<@\000\000\000\000\000\000\000\000\000\000\000\000\000\000>@\000\000\000\000\000\200@@\000\000\000\000\000\000\024@\000\000\000\000\000\000C@\000\000\000\000\000\000\000\000\000\000\000\000\000\000@@\000\000\000\000\000\000\000\000\000\000\000\000\000\000\000\000\000\000\000\000\000\000A@\000\000\000\000\000\000<@\000\000\000\000\000\000\000\000\000\000\000\000\000\000\000\000\000\000\000\000\000\200A@\000\000\000\000\000\200F@\000\000\000\000\000\0006@\000\000\000\000\000\0009@\000\000\000\000\000\0002@\000\000\000\000\000\0002@\000\000\000\000\000\000=@\000\000\000\000\000\000\000\000\000\000\000\000\000\000:@\000\000\000\000\000\0006@\000\000\000\000\000\000A@\000\000\000\000\000\000A@\000\000\000\000\000\200A@\000\000\000\000\000\200G@\000\000\000\000\000\000\010@\000\000\000\000\000\000>@\000\000\000\000\000\000\020@\000\000\000\000\000\000\020@\000\000\000\000\000\000\000\000\000\000\000\000\000\000;@\000\000\000\000\000\200A@\000\000\000\000\000\000\000@\000\000\000\000\000\0002@\000\000\000\000\000\000<@\000\000\000\000\000\2007@\000\000\000\000\000\200I@\000\000\000\000\000\0009@\000\000\000\000\000\0002@\000\000\000\000\000\000\000\000\000\000\000\000\000\000<@\000\000\000\000\000\000\010@\000\000\000\000\000\000<@\000\000\000\000\000\000\000\000\000\000\000\000\000\000\000\000\000\000\000\000\000\000I@\000\000\000\000\000\200F@\000\000\000\000\000\000O@\000\000\000\000\000\000\360?\000\000\000\000\000\000<@\000\000\000\000\000\000I@\000\000\000\000\000\200R@\000\000\000\000\000\000\000\000\000\000\000\000\000\000@@\000\000\000\000\000\000?@\000\000\000\000\000\000\"@\000\000\000\000\000\0003@\000\000\000\000\000\000@@\000\000\000\000\000\0007@\000\000\000\000\000\000:@\000\000\000\000\000\0001@\000\000\000\000\000\0009@\000\000\000\000\000\000\360?\000\000\000\000\000\0008@\000\000\000\000\000\000:@\000\000\000\000\000\0003@\000\000\000\000\000\000.@\000\000\000\000\000\000;@\000\000\000\000\000\0008@\000\000\000\000\000\000D@\000\000\000\000\000\000\000\000\000\000\000\000\000\200M@\000\000\000\000\000\200L@\000\000\000\000\000\0007@\000\000\000\000\000\0003@\000\000\000\000\000\000\020@\000\000\000\000\000\200G@\000\000\000\000\000\0002@\000\000\000\000\000\0007@\000\000\000\000\000\0009@\000\000\000\000\000\000>@\000\000\000\000\000\000\000\000\000\000\000\000\000\0008@\000\000\000\000\000\200C@\000\000\000\000\000\200@@\000\000\000\000\000\0001@\000\000\000\000\000\000;@\000\000\000\000\000\200@@\000\000\000\000\000\000=@\000\000\000\000\000\000F@\000\000\000\000\000\000E@\000\000\000\000\000\000\000\000\000\000\000\000\000\000\000\000\000\000\000\000\000\000B@\000\000\000\000\000\000\000\000\000\000\000\000\000\000P@\000\000\000\000\000\000H@\000\000\000\000\000\000@@\000\000\000\000\000\200I@\000\000\000\000\000\000\000\000\000\000\000\000\000\000>@\000\000\000\000\000\000\000\000\000\000\000\000\000\000\000\000\000\000\000\000\000\000\000\000\000\000\000\000\000\200A@\000\000\000\000\000\000M@\000\000\000\000\000\0007@\000\000\000\000\000\0008@\000\000\000\000\000\000@@\000\000\000\000\000\000\020@\000\000\000\000\000\000@@\000\000\000\000\000\000P@\000\000\000\000\000\000\024@\000\000\000\000\000\000>@\000\000\000\000\000\000\000\000\000\000\000\000\000\0003@\000\000\000\000\000\200F@\000\000\000\000\000\000\000\000\000\000\000\000\000\000\000\000\000\000\000\000\000\000\000\000\000\000\000\000\000\200B@\000\000\000\000\000\200I@\000\000\000\000\000\000?@\000\000\000\000\000\000B@\000\000\000\000\000\000\000\000\000\000\000\000\000\0002@\000\000\000\000\000\000\000\000\000\000\000\000\000\0002@\000\000\000\000\000\000>@\000\000\000\000\000\200C@\000\000\000\000\000\000\000\000\000\000\000\000\000\000I@\000\000\000\000\000\0005@\000\000\000\000\000\000B@\000\000\000\000\000\000@@\000\000\000\000\000\000K@\000\000\000\000\000\0001@\000\000\000\000\000\0002@\000\000\000\000\000\0000@\000\000\000\000\000\0008@\000\000\000\000\000\000\000\000\000\000\000\000\000\0009@\000\000\000\000\000\000\000\000\000\000\000\000\000\0005@\000\000\000\000\000\000\000\000\000\000\000\000\000\000\360?\000\000\000\000\000\200B@\000\000\000\000\000\0008@\000\000\000\000\000\000I@\000\000\000\000\000\000\000\000\000\000\000\000\000\000:@\000\000\000\000\000\0001@\000\000\000\000\000\0006@\000\000\000\000\000\200A@\000\000\000\000\000\000\000\000\000\000\000\000\000\0003@\000\000\000\000\000\000L@\000\000\000\000\000\200F@\000\000\000\000\000\000\000\000\000\000\000\000\000\0008@\000\000\000\000\000\0005@\000\000\000\000\000\0008@\000\000\000\000\000\200@@\000\000\000\000\000\0003@\000\000\000\000\000\0008@\000\000\000\000\000\000\000\000\000\000\000\000\000\000K@\000\000\000\000\000\0002@\000\000\000\000\000\0009@\000\000\000\000\000\0003@\000\000\000\000\000\000\000\000\000\000\000\000\000\200G@\000\000\000\000\000\0005@\000\000\000\000\000\200A@\000\000\000\000\000\000\360?\000\000\000\000\000\000;@\000\000\000\000\000@@@\000\000\000\000\000\000C@\000\000\000\000\000\200F@\000\000\000\000\000\000I@\000\000\000\000\000\000\000\000\000\000\000\000\000\0003@"
      }
    }
  }
}
node {
  name: "Const_2"
  op: "Const"
  device: "/device:CPU:0"
  attr {
    key: "_output_shapes"
    value {
      list {
        shape {
          dim {
            size: 712
          }
        }
      }
    }
  }
  attr {
    key: "dtype"
    value {
      type: DT_STRING
    }
  }
  attr {
    key: "value"
    value {
      tensor {
        dtype: DT_STRING
        tensor_shape {
          dim {
            size: 712
          }
        }
        string_val: ""
        string_val: ""
        string_val: ""
        string_val: ""
        string_val: ""
        string_val: ""
        string_val: ""
        string_val: ""
        string_val: ""
        string_val: ""
        string_val: "C148"
        string_val: "D"
        string_val: ""
        string_val: ""
        string_val: ""
        string_val: ""
        string_val: "D30"
        string_val: ""
        string_val: "D11"
        string_val: ""
        string_val: ""
        string_val: ""
        string_val: "F38"
        string_val: ""
        string_val: ""
        string_val: ""
        string_val: "C83"
        string_val: ""
        string_val: ""
        string_val: "A10"
        string_val: "C92"
        string_val: ""
        string_val: "E46"
        string_val: "D7"
        string_val: "E44"
        string_val: ""
        string_val: ""
        string_val: ""
        string_val: ""
        string_val: "D50"
        string_val: ""
        string_val: ""
        string_val: ""
        string_val: ""
        string_val: "B49"
        string_val: ""
        string_val: ""
        string_val: ""
        string_val: ""
        string_val: ""
        string_val: "B4"
        string_val: ""
        string_val: "C22 C26"
        string_val: ""
        string_val: ""
        string_val: ""
        string_val: ""
        string_val: ""
        string_val: ""
        string_val: "F2"
        string_val: "C103"
        string_val: "E8"
        string_val: ""
        string_val: ""
        string_val: ""
        string_val: ""
        string_val: ""
        string_val: ""
        string_val: ""
        string_val: ""
        string_val: "C54"
        string_val: ""
        string_val: ""
        string_val: ""
        string_val: ""
        string_val: ""
        string_val: ""
        string_val: ""
        string_val: ""
        string_val: ""
        string_val: ""
        string_val: ""
        string_val: "E50"
        string_val: ""
        string_val: "B82 B84"
        string_val: "C123"
        string_val: ""
        string_val: ""
        string_val: "C65"
        string_val: ""
        string_val: ""
        string_val: ""
        string_val: ""
        string_val: ""
        string_val: ""
        string_val: ""
        string_val: ""
        string_val: ""
        string_val: "B50"
        string_val: ""
        string_val: ""
        string_val: "B51 B53 B55"
        string_val: ""
        string_val: ""
        string_val: ""
        string_val: ""
        string_val: ""
        string_val: "C126"
        string_val: ""
        string_val: ""
        string_val: ""
        string_val: ""
        string_val: "E49"
        string_val: ""
        string_val: ""
        string_val: ""
        string_val: ""
        string_val: "B3"
        string_val: ""
        string_val: ""
        string_val: ""
        string_val: "D36"
        string_val: ""
        string_val: ""
        string_val: "B49"
        string_val: ""
        string_val: ""
        string_val: "B30"
        string_val: ""
        string_val: ""
        string_val: ""
        string_val: ""
        string_val: ""
        string_val: ""
        string_val: ""
        string_val: ""
        string_val: ""
        string_val: ""
        string_val: ""
        string_val: "C126"
        string_val: ""
        string_val: ""
        string_val: "C106"
        string_val: "B37"
        string_val: ""
        string_val: ""
        string_val: ""
        string_val: ""
        string_val: "B39"
        string_val: ""
        string_val: ""
        string_val: "E34"
        string_val: ""
        string_val: ""
        string_val: ""
        string_val: ""
        string_val: ""
        string_val: ""
        string_val: ""
        string_val: "C50"
        string_val: ""
        string_val: ""
        string_val: ""
        string_val: ""
        string_val: ""
        string_val: ""
        string_val: ""
        string_val: ""
        string_val: ""
        string_val: "D49"
        string_val: ""
        string_val: ""
        string_val: ""
        string_val: ""
        string_val: ""
        string_val: ""
        string_val: ""
        string_val: ""
        string_val: "E10"
        string_val: "E40"
        string_val: ""
        string_val: "E67"
        string_val: "F E69"
        string_val: ""
        string_val: ""
        string_val: "C68"
        string_val: ""
        string_val: ""
        string_val: "C68"
        string_val: ""
        string_val: ""
        string_val: "C124"
        string_val: ""
        string_val: ""
        string_val: "C125"
        string_val: ""
        string_val: "C86"
        string_val: ""
        string_val: "E121"
        string_val: ""
        string_val: ""
        string_val: ""
        string_val: ""
        string_val: "B57 B59 B63 B66"
        string_val: "E38"
        string_val: ""
        string_val: ""
        string_val: "D46"
        string_val: ""
        string_val: "G6"
        string_val: ""
        string_val: "D9"
        string_val: ""
        string_val: ""
        string_val: "E24"
        string_val: ""
        string_val: ""
        string_val: ""
        string_val: ""
        string_val: "E25"
        string_val: ""
        string_val: ""
        string_val: ""
        string_val: ""
        string_val: "C104"
        string_val: ""
        string_val: "B18"
        string_val: ""
        string_val: ""
        string_val: ""
        string_val: ""
        string_val: ""
        string_val: ""
        string_val: ""
        string_val: "C125"
        string_val: ""
        string_val: ""
        string_val: ""
        string_val: ""
        string_val: ""
        string_val: ""
        string_val: ""
        string_val: ""
        string_val: ""
        string_val: ""
        string_val: ""
        string_val: ""
        string_val: ""
        string_val: ""
        string_val: ""
        string_val: "C70"
        string_val: ""
        string_val: ""
        string_val: ""
        string_val: ""
        string_val: "B77"
        string_val: ""
        string_val: ""
        string_val: "E68"
        string_val: "E25"
        string_val: ""
        string_val: ""
        string_val: ""
        string_val: ""
        string_val: ""
        string_val: "C82"
        string_val: ""
        string_val: ""
        string_val: ""
        string_val: ""
        string_val: "E101"
        string_val: ""
        string_val: "C23 C25 C27"
        string_val: ""
        string_val: ""
        string_val: ""
        string_val: ""
        string_val: ""
        string_val: ""
        string_val: "E101"
        string_val: ""
        string_val: ""
        string_val: ""
        string_val: "A31"
        string_val: ""
        string_val: ""
        string_val: "C78"
        string_val: ""
        string_val: "B51 B53 B55"
        string_val: ""
        string_val: "E31"
        string_val: ""
        string_val: ""
        string_val: ""
        string_val: ""
        string_val: ""
        string_val: ""
        string_val: ""
        string_val: "A32"
        string_val: ""
        string_val: ""
        string_val: ""
        string_val: ""
        string_val: ""
        string_val: ""
        string_val: ""
        string_val: ""
        string_val: ""
        string_val: ""
        string_val: ""
        string_val: ""
        string_val: ""
        string_val: ""
        string_val: ""
        string_val: ""
        string_val: "B102"
        string_val: ""
        string_val: ""
        string_val: "B69"
        string_val: ""
        string_val: ""
        string_val: ""
        string_val: ""
        string_val: ""
        string_val: ""
        string_val: "D33"
        string_val: ""
        string_val: ""
        string_val: "C92"
        string_val: ""
        string_val: ""
        string_val: ""
        string_val: ""
        string_val: ""
        string_val: ""
        string_val: ""
        string_val: ""
        string_val: "D"
        string_val: ""
        string_val: ""
        string_val: ""
        string_val: ""
        string_val: "A7"
        string_val: ""
        string_val: ""
        string_val: "F33"
        string_val: "F G63"
        string_val: ""
        string_val: "B57 B59 B63 B66"
        string_val: "B96 B98"
        string_val: ""
        string_val: ""
        string_val: ""
        string_val: ""
        string_val: ""
        string_val: ""
        string_val: "A20"
        string_val: ""
        string_val: "C7"
        string_val: ""
        string_val: ""
        string_val: ""
        string_val: ""
        string_val: ""
        string_val: ""
        string_val: ""
        string_val: ""
        string_val: "D35"
        string_val: ""
        string_val: "C23 C25 C27"
        string_val: ""
        string_val: "D19"
        string_val: ""
        string_val: "C47"
        string_val: ""
        string_val: ""
        string_val: ""
        string_val: ""
        string_val: "B78"
        string_val: ""
        string_val: ""
        string_val: ""
        string_val: ""
        string_val: ""
        string_val: ""
        string_val: ""
        string_val: ""
        string_val: ""
        string_val: ""
        string_val: "C124"
        string_val: ""
        string_val: ""
        string_val: "G6"
        string_val: ""
        string_val: ""
        string_val: "C99"
        string_val: "A16"
        string_val: ""
        string_val: ""
        string_val: ""
        string_val: ""
        string_val: "D35"
        string_val: "E77"
        string_val: ""
        string_val: "C22 C26"
        string_val: ""
        string_val: "C2"
        string_val: "G6"
        string_val: ""
        string_val: ""
        string_val: ""
        string_val: ""
        string_val: "C110"
        string_val: ""
        string_val: ""
        string_val: ""
        string_val: ""
        string_val: ""
        string_val: ""
        string_val: ""
        string_val: ""
        string_val: ""
        string_val: ""
        string_val: ""
        string_val: ""
        string_val: ""
        string_val: ""
        string_val: ""
        string_val: ""
        string_val: ""
        string_val: "C91"
        string_val: ""
        string_val: ""
        string_val: ""
        string_val: "D36"
        string_val: "D20"
        string_val: ""
        string_val: "D28"
        string_val: "E121"
        string_val: ""
        string_val: ""
        string_val: ""
        string_val: ""
        string_val: ""
        string_val: ""
        string_val: ""
        string_val: ""
        string_val: ""
        string_val: ""
        string_val: ""
        string_val: "F G73"
        string_val: ""
        string_val: ""
        string_val: "B86"
        string_val: ""
        string_val: ""
        string_val: ""
        string_val: ""
        string_val: ""
        string_val: ""
        string_val: ""
        string_val: ""
        string_val: ""
        string_val: ""
        string_val: ""
        string_val: ""
        string_val: ""
        string_val: ""
        string_val: ""
        string_val: ""
        string_val: "A6"
        string_val: ""
        string_val: ""
        string_val: "C87"
        string_val: "E33"
        string_val: ""
        string_val: ""
        string_val: ""
        string_val: ""
        string_val: ""
        string_val: ""
        string_val: "B94"
        string_val: ""
        string_val: ""
        string_val: ""
        string_val: ""
        string_val: ""
        string_val: ""
        string_val: ""
        string_val: "C83"
        string_val: ""
        string_val: ""
        string_val: ""
        string_val: ""
        string_val: ""
        string_val: "D"
        string_val: "A34"
        string_val: ""
        string_val: "C128"
        string_val: "D6"
        string_val: ""
        string_val: ""
        string_val: ""
        string_val: "C101"
        string_val: ""
        string_val: ""
        string_val: ""
        string_val: ""
        string_val: ""
        string_val: ""
        string_val: "B42"
        string_val: ""
        string_val: ""
        string_val: ""
        string_val: ""
        string_val: "C62 C64"
        string_val: ""
        string_val: "B96 B98"
        string_val: ""
        string_val: "B20"
        string_val: "B79"
        string_val: ""
        string_val: "E12"
        string_val: ""
        string_val: ""
        string_val: "D20"
        string_val: "B41"
        string_val: ""
        string_val: "A14"
        string_val: ""
        string_val: ""
        string_val: ""
        string_val: "C45"
        string_val: ""
        string_val: ""
        string_val: ""
        string_val: ""
        string_val: ""
        string_val: ""
        string_val: ""
        string_val: ""
        string_val: "B101"
        string_val: "B38"
        string_val: ""
        string_val: ""
        string_val: "C65"
        string_val: ""
        string_val: ""
        string_val: ""
        string_val: ""
        string_val: ""
        string_val: "F33"
        string_val: "D56"
        string_val: ""
        string_val: ""
        string_val: ""
        string_val: ""
        string_val: ""
        string_val: ""
        string_val: ""
        string_val: "E8"
        string_val: ""
        string_val: "F2"
        string_val: ""
        string_val: ""
        string_val: ""
        string_val: "E17"
        string_val: ""
        string_val: ""
        string_val: ""
        string_val: ""
        string_val: ""
        string_val: "C52"
        string_val: ""
        string_val: ""
        string_val: ""
        string_val: ""
        string_val: "B28"
        string_val: ""
        string_val: ""
        string_val: ""
        string_val: ""
        string_val: ""
        string_val: ""
        string_val: "B20"
        string_val: ""
        string_val: ""
        string_val: ""
        string_val: ""
        string_val: ""
        string_val: ""
        string_val: ""
        string_val: "F4"
        string_val: "B35"
        string_val: ""
        string_val: "F G73"
        string_val: ""
        string_val: ""
        string_val: ""
        string_val: ""
        string_val: ""
        string_val: ""
        string_val: ""
        string_val: ""
        string_val: ""
        string_val: ""
        string_val: "E63"
        string_val: ""
        string_val: ""
        string_val: ""
        string_val: ""
        string_val: ""
        string_val: "G6"
        string_val: "A36"
        string_val: ""
        string_val: ""
        string_val: ""
        string_val: ""
        string_val: ""
        string_val: ""
        string_val: ""
        string_val: ""
        string_val: ""
        string_val: "C46"
        string_val: ""
        string_val: "C23 C25 C27"
        string_val: "D17"
        string_val: "D15"
        string_val: ""
        string_val: ""
        string_val: "E36"
        string_val: ""
        string_val: ""
        string_val: ""
        string_val: "C123"
        string_val: "D48"
        string_val: ""
        string_val: "C90"
        string_val: ""
        string_val: "F4"
        string_val: ""
        string_val: ""
        string_val: ""
        string_val: ""
        string_val: ""
        string_val: ""
        string_val: "T"
        string_val: ""
        string_val: ""
        string_val: ""
        string_val: "C118"
        string_val: ""
        string_val: ""
        string_val: "B22"
        string_val: ""
        string_val: ""
        string_val: ""
        string_val: ""
        string_val: "B73"
        string_val: "E67"
        string_val: ""
        string_val: ""
        string_val: ""
        string_val: ""
        string_val: ""
        string_val: ""
        string_val: ""
        string_val: ""
        string_val: ""
        string_val: ""
        string_val: ""
        string_val: ""
        string_val: ""
        string_val: ""
        string_val: ""
        string_val: ""
        string_val: ""
        string_val: ""
        string_val: ""
        string_val: ""
        string_val: ""
        string_val: ""
        string_val: ""
        string_val: ""
        string_val: ""
        string_val: ""
        string_val: "A26"
        string_val: ""
        string_val: ""
        string_val: ""
        string_val: ""
        string_val: ""
        string_val: ""
        string_val: ""
        string_val: ""
        string_val: ""
        string_val: "D26"
        string_val: ""
        string_val: ""
        string_val: ""
        string_val: ""
        string_val: ""
        string_val: "D26"
        string_val: ""
        string_val: ""
        string_val: "E101"
        string_val: ""
        string_val: "B28"
        string_val: ""
        string_val: "E44"
        string_val: ""
        string_val: ""
      }
    }
  }
}
node {
  name: "Const_3"
  op: "Const"
  device: "/device:CPU:0"
  attr {
    key: "_output_shapes"
    value {
      list {
        shape {
          dim {
            size: 712
          }
        }
      }
    }
  }
  attr {
    key: "dtype"
    value {
      type: DT_STRING
    }
  }
  attr {
    key: "value"
    value {
      tensor {
        dtype: DT_STRING
        tensor_shape {
          dim {
            size: 712
          }
        }
        string_val: "Q"
        string_val: "S"
        string_val: "S"
        string_val: "S"
        string_val: "C"
        string_val: "C"
        string_val: "Q"
        string_val: "S"
        string_val: "S"
        string_val: "S"
        string_val: "C"
        string_val: "C"
        string_val: "S"
        string_val: "S"
        string_val: "S"
        string_val: "S"
        string_val: "S"
        string_val: "S"
        string_val: "S"
        string_val: "S"
        string_val: "S"
        string_val: "C"
        string_val: "Q"
        string_val: "C"
        string_val: "S"
        string_val: "S"
        string_val: "S"
        string_val: "Q"
        string_val: "S"
        string_val: "C"
        string_val: "C"
        string_val: "S"
        string_val: "S"
        string_val: "S"
        string_val: "S"
        string_val: "S"
        string_val: "S"
        string_val: "S"
        string_val: "C"
        string_val: "S"
        string_val: "S"
        string_val: "S"
        string_val: "S"
        string_val: "C"
        string_val: "C"
        string_val: "S"
        string_val: "Q"
        string_val: "Q"
        string_val: "S"
        string_val: "Q"
        string_val: "C"
        string_val: "S"
        string_val: "S"
        string_val: "C"
        string_val: "C"
        string_val: "S"
        string_val: "Q"
        string_val: "Q"
        string_val: "Q"
        string_val: "S"
        string_val: "S"
        string_val: "S"
        string_val: "Q"
        string_val: "S"
        string_val: "Q"
        string_val: "S"
        string_val: "S"
        string_val: "S"
        string_val: "Q"
        string_val: "S"
        string_val: "C"
        string_val: "S"
        string_val: "S"
        string_val: "S"
        string_val: "S"
        string_val: "S"
        string_val: "S"
        string_val: "S"
        string_val: "S"
        string_val: "S"
        string_val: "Q"
        string_val: "S"
        string_val: "C"
        string_val: "Q"
        string_val: "C"
        string_val: "S"
        string_val: "S"
        string_val: "S"
        string_val: "C"
        string_val: "C"
        string_val: "S"
        string_val: "S"
        string_val: "S"
        string_val: "S"
        string_val: "S"
        string_val: "S"
        string_val: "S"
        string_val: "C"
        string_val: "C"
        string_val: "S"
        string_val: "S"
        string_val: "S"
        string_val: "Q"
        string_val: "S"
        string_val: "S"
        string_val: "S"
        string_val: "S"
        string_val: "S"
        string_val: "S"
        string_val: "S"
        string_val: "S"
        string_val: "C"
        string_val: "C"
        string_val: "S"
        string_val: "S"
        string_val: "C"
        string_val: "S"
        string_val: "S"
        string_val: "C"
        string_val: "Q"
        string_val: "S"
        string_val: "C"
        string_val: "S"
        string_val: "S"
        string_val: "C"
        string_val: "S"
        string_val: "S"
        string_val: "C"
        string_val: "S"
        string_val: "S"
        string_val: "S"
        string_val: "S"
        string_val: "S"
        string_val: "S"
        string_val: "S"
        string_val: "S"
        string_val: "S"
        string_val: "S"
        string_val: "S"
        string_val: "S"
        string_val: "S"
        string_val: "S"
        string_val: "S"
        string_val: "C"
        string_val: "S"
        string_val: "Q"
        string_val: "S"
        string_val: "S"
        string_val: "C"
        string_val: "S"
        string_val: "S"
        string_val: "C"
        string_val: "S"
        string_val: "S"
        string_val: "C"
        string_val: "S"
        string_val: "Q"
        string_val: "C"
        string_val: "S"
        string_val: "C"
        string_val: "S"
        string_val: "S"
        string_val: "Q"
        string_val: "S"
        string_val: "Q"
        string_val: "S"
        string_val: "S"
        string_val: "C"
        string_val: "S"
        string_val: "C"
        string_val: "S"
        string_val: "S"
        string_val: "S"
        string_val: "C"
        string_val: "S"
        string_val: "S"
        string_val: "S"
        string_val: "S"
        string_val: "S"
        string_val: "C"
        string_val: "C"
        string_val: "S"
        string_val: "C"
        string_val: "S"
        string_val: "S"
        string_val: "C"
        string_val: "C"
        string_val: "S"
        string_val: "C"
        string_val: "S"
        string_val: "C"
        string_val: "S"
        string_val: "S"
        string_val: "S"
        string_val: "S"
        string_val: "S"
        string_val: "C"
        string_val: "S"
        string_val: "S"
        string_val: "Q"
        string_val: "S"
        string_val: "S"
        string_val: "C"
        string_val: "C"
        string_val: "S"
        string_val: "S"
        string_val: "S"
        string_val: "S"
        string_val: "S"
        string_val: "S"
        string_val: "S"
        string_val: "S"
        string_val: "S"
        string_val: "C"
        string_val: "S"
        string_val: "S"
        string_val: "Q"
        string_val: "C"
        string_val: "S"
        string_val: "S"
        string_val: "S"
        string_val: "S"
        string_val: "S"
        string_val: "S"
        string_val: "S"
        string_val: "S"
        string_val: "C"
        string_val: "C"
        string_val: "S"
        string_val: "S"
        string_val: "S"
        string_val: "C"
        string_val: "S"
        string_val: "S"
        string_val: "S"
        string_val: "S"
        string_val: "S"
        string_val: "C"
        string_val: "C"
        string_val: "S"
        string_val: "S"
        string_val: "S"
        string_val: "Q"
        string_val: "Q"
        string_val: "C"
        string_val: "C"
        string_val: "Q"
        string_val: "S"
        string_val: "S"
        string_val: "C"
        string_val: "C"
        string_val: "S"
        string_val: "S"
        string_val: "S"
        string_val: "S"
        string_val: "S"
        string_val: "S"
        string_val: "S"
        string_val: "S"
        string_val: "S"
        string_val: "S"
        string_val: "S"
        string_val: "S"
        string_val: "S"
        string_val: "S"
        string_val: "C"
        string_val: "C"
        string_val: "S"
        string_val: "C"
        string_val: "S"
        string_val: "Q"
        string_val: "S"
        string_val: "S"
        string_val: "S"
        string_val: "Q"
        string_val: "S"
        string_val: "Q"
        string_val: "S"
        string_val: "C"
        string_val: "S"
        string_val: "S"
        string_val: "Q"
        string_val: "S"
        string_val: "C"
        string_val: "S"
        string_val: "S"
        string_val: "Q"
        string_val: "S"
        string_val: "C"
        string_val: "S"
        string_val: "S"
        string_val: "S"
        string_val: "C"
        string_val: "S"
        string_val: "S"
        string_val: "S"
        string_val: "Q"
        string_val: "C"
        string_val: "S"
        string_val: "S"
        string_val: "S"
        string_val: "S"
        string_val: "S"
        string_val: "S"
        string_val: "S"
        string_val: "S"
        string_val: "S"
        string_val: "S"
        string_val: "S"
        string_val: "S"
        string_val: "S"
        string_val: "S"
        string_val: "S"
        string_val: "S"
        string_val: "S"
        string_val: "S"
        string_val: "S"
        string_val: "Q"
        string_val: "S"
        string_val: "S"
        string_val: "S"
        string_val: "S"
        string_val: "S"
        string_val: "S"
        string_val: "S"
        string_val: "C"
        string_val: "S"
        string_val: "S"
        string_val: "C"
        string_val: "S"
        string_val: "S"
        string_val: "S"
        string_val: "S"
        string_val: "S"
        string_val: "S"
        string_val: "C"
        string_val: "Q"
        string_val: "S"
        string_val: "S"
        string_val: "C"
        string_val: "S"
        string_val: "C"
        string_val: "C"
        string_val: "S"
        string_val: "S"
        string_val: "S"
        string_val: "S"
        string_val: "Q"
        string_val: "C"
        string_val: "S"
        string_val: "S"
        string_val: "S"
        string_val: "S"
        string_val: "S"
        string_val: "S"
        string_val: "S"
        string_val: "C"
        string_val: "S"
        string_val: "S"
        string_val: "S"
        string_val: "S"
        string_val: "S"
        string_val: "C"
        string_val: "S"
        string_val: "S"
        string_val: "S"
        string_val: "S"
        string_val: "S"
        string_val: "S"
        string_val: "S"
        string_val: "Q"
        string_val: "S"
        string_val: "S"
        string_val: "C"
        string_val: "S"
        string_val: "S"
        string_val: "C"
        string_val: "S"
        string_val: "C"
        string_val: "S"
        string_val: "S"
        string_val: "S"
        string_val: "S"
        string_val: "C"
        string_val: "Q"
        string_val: "S"
        string_val: "S"
        string_val: "C"
        string_val: "S"
        string_val: "S"
        string_val: "S"
        string_val: "S"
        string_val: "S"
        string_val: "S"
        string_val: "S"
        string_val: "S"
        string_val: "C"
        string_val: "S"
        string_val: "S"
        string_val: "S"
        string_val: "C"
        string_val: "S"
        string_val: "S"
        string_val: "C"
        string_val: "S"
        string_val: "S"
        string_val: "S"
        string_val: "S"
        string_val: "S"
        string_val: "S"
        string_val: "S"
        string_val: "S"
        string_val: "S"
        string_val: "C"
        string_val: "S"
        string_val: "S"
        string_val: "Q"
        string_val: "Q"
        string_val: "S"
        string_val: "S"
        string_val: "S"
        string_val: "S"
        string_val: "S"
        string_val: "Q"
        string_val: "S"
        string_val: "S"
        string_val: "C"
        string_val: "C"
        string_val: "C"
        string_val: "S"
        string_val: "S"
        string_val: "C"
        string_val: "C"
        string_val: "S"
        string_val: "C"
        string_val: "C"
        string_val: "S"
        string_val: "S"
        string_val: "S"
        string_val: "S"
        string_val: "C"
        string_val: "S"
        string_val: "S"
        string_val: "S"
        string_val: "S"
        string_val: "S"
        string_val: "C"
        string_val: "S"
        string_val: "C"
        string_val: "S"
        string_val: "S"
        string_val: "S"
        string_val: "S"
        string_val: "C"
        string_val: "Q"
        string_val: "S"
        string_val: "S"
        string_val: "S"
        string_val: "C"
        string_val: "S"
        string_val: "S"
        string_val: "S"
        string_val: "S"
        string_val: "S"
        string_val: "S"
        string_val: "S"
        string_val: "S"
        string_val: "Q"
        string_val: "S"
        string_val: "S"
        string_val: "S"
        string_val: "S"
        string_val: "S"
        string_val: "S"
        string_val: "S"
        string_val: "S"
        string_val: "S"
        string_val: "C"
        string_val: "C"
        string_val: "S"
        string_val: "C"
        string_val: "S"
        string_val: "S"
        string_val: "S"
        string_val: "C"
        string_val: "Q"
        string_val: "S"
        string_val: "S"
        string_val: "S"
        string_val: "S"
        string_val: "S"
        string_val: "S"
        string_val: "S"
        string_val: "S"
        string_val: "S"
        string_val: "C"
        string_val: "S"
        string_val: "S"
        string_val: "S"
        string_val: "S"
        string_val: "S"
        string_val: "S"
        string_val: "S"
        string_val: "S"
        string_val: "S"
        string_val: "S"
        string_val: "S"
        string_val: "S"
        string_val: "S"
        string_val: "S"
        string_val: "S"
        string_val: "C"
        string_val: "S"
        string_val: "S"
        string_val: "Q"
        string_val: "C"
        string_val: "S"
        string_val: "S"
        string_val: "S"
        string_val: "S"
        string_val: "S"
        string_val: "S"
        string_val: "S"
        string_val: "S"
        string_val: "S"
        string_val: "C"
        string_val: "C"
        string_val: "C"
        string_val: "S"
        string_val: "S"
        string_val: "S"
        string_val: "C"
        string_val: "C"
        string_val: "C"
        string_val: "S"
        string_val: "C"
        string_val: "S"
        string_val: "S"
        string_val: "S"
        string_val: "Q"
        string_val: "C"
        string_val: "C"
        string_val: "S"
        string_val: "S"
        string_val: "Q"
        string_val: "C"
        string_val: "S"
        string_val: "C"
        string_val: "S"
        string_val: "S"
        string_val: "S"
        string_val: "S"
        string_val: "S"
        string_val: "S"
        string_val: "S"
        string_val: "S"
        string_val: "S"
        string_val: "C"
        string_val: "S"
        string_val: "S"
        string_val: "S"
        string_val: "C"
        string_val: "S"
        string_val: "S"
        string_val: "S"
        string_val: "C"
        string_val: "S"
        string_val: "S"
        string_val: "S"
        string_val: "S"
        string_val: "S"
        string_val: "C"
        string_val: "S"
        string_val: "S"
        string_val: "Q"
        string_val: "S"
        string_val: "S"
        string_val: ""
        string_val: "S"
        string_val: "S"
        string_val: "S"
        string_val: "S"
        string_val: "S"
        string_val: "S"
        string_val: "S"
        string_val: "C"
        string_val: "Q"
        string_val: "S"
        string_val: "S"
        string_val: "S"
        string_val: "S"
        string_val: "S"
        string_val: "S"
        string_val: "C"
        string_val: "C"
        string_val: "S"
        string_val: "Q"
        string_val: "S"
        string_val: "S"
        string_val: "Q"
        string_val: "S"
        string_val: "S"
        string_val: "Q"
        string_val: "S"
        string_val: "S"
        string_val: "S"
        string_val: "S"
        string_val: "S"
        string_val: "S"
        string_val: "S"
        string_val: "C"
        string_val: "Q"
        string_val: "S"
        string_val: "S"
        string_val: "S"
        string_val: "C"
        string_val: "S"
        string_val: "S"
        string_val: "S"
        string_val: "S"
        string_val: "S"
        string_val: "Q"
        string_val: "S"
        string_val: "S"
        string_val: "C"
        string_val: "S"
        string_val: "S"
        string_val: "C"
        string_val: "S"
        string_val: "Q"
        string_val: "C"
        string_val: "Q"
        string_val: "C"
        string_val: "Q"
        string_val: "S"
        string_val: "C"
        string_val: "S"
        string_val: "C"
        string_val: "S"
        string_val: "S"
        string_val: "S"
        string_val: "S"
        string_val: "S"
        string_val: "Q"
        string_val: "C"
        string_val: "S"
        string_val: "S"
        string_val: "S"
        string_val: "Q"
        string_val: "Q"
        string_val: "C"
        string_val: "S"
        string_val: "S"
        string_val: "S"
        string_val: "C"
        string_val: "C"
        string_val: "Q"
        string_val: "S"
        string_val: "S"
        string_val: "S"
        string_val: "S"
        string_val: "S"
        string_val: "S"
        string_val: "S"
        string_val: "S"
        string_val: "S"
        string_val: "S"
        string_val: "S"
        string_val: "S"
        string_val: "C"
        string_val: "Q"
        string_val: "S"
        string_val: "Q"
        string_val: "S"
        string_val: "S"
        string_val: "C"
        string_val: "S"
        string_val: "S"
        string_val: "S"
        string_val: "S"
        string_val: "S"
        string_val: "S"
        string_val: "S"
        string_val: "S"
        string_val: "S"
        string_val: "S"
        string_val: "C"
        string_val: "S"
        string_val: "S"
        string_val: "S"
        string_val: "S"
        string_val: "S"
        string_val: "C"
        string_val: "S"
        string_val: "S"
        string_val: "C"
        string_val: "S"
        string_val: "S"
        string_val: "C"
        string_val: "S"
        string_val: "S"
        string_val: "S"
        string_val: "S"
        string_val: "S"
        string_val: "S"
        string_val: "S"
        string_val: "C"
        string_val: ""
        string_val: "S"
        string_val: "S"
        string_val: "S"
        string_val: "S"
      }
    }
  }
}
node {
  name: "Const_4"
  op: "Const"
  device: "/device:CPU:0"
  attr {
    key: "_output_shapes"
    value {
      list {
        shape {
          dim {
            size: 712
          }
        }
      }
    }
  }
  attr {
    key: "dtype"
    value {
      type: DT_DOUBLE
    }
  }
  attr {
    key: "value"
    value {
      tensor {
        dtype: DT_DOUBLE
        tensor_shape {
          dim {
            size: 712
          }
        }
        tensor_content: "\000\000\000\000\000 =@\000\000\000\000\000\000#@\000\000\000\000\000\000\"@\000\000\000\000\000\3002@\256\266b\177\331}.@fffff\346\034@\000\000\000\000\000\000\037@\000\000\000\000\000\200@@\232\231\231\231\231\031/@\000\000\000\000\000\000*@\000\000\000\000\000\000>@\000\000\000\000\000\300)@\000\000\000\000\000\000%@fffff&8@fffff\2064@333333\036@\315\314\314\314\314\214J@fffff&8@o\360\205\311T}S@\000\000\000\000\000\330C@\232\231\231\231\231\031 @\232\231\231\231\231\3112@\000\000\000\000\000\000\037@\353\3426\032\300{&@\000\000\000\000\000\000\'@\000\000\000\000\000\000*@fffff\336T@\000\000\000\000\000\000\037@\367\006_\230L\225\037@\000\000\000\000\000\020D@\221\017z6\253FV@33333\263/@fffff\356I@o\360\205\311T}S@33333\363K@33333S!@\000\000\000\000\000\2003@\232\231\231\231\231\031 @fffff\346\034@EGr\371\017)@@\000\000\000\000\000\000*@333333\036@\000\000\000\000\000\2003@\367\006_\230L\225\037@\367u\340\234\021\305V@\315\314\314\314\314\314/@\000\000\000\000\000 =@\000\000\000\000\000\000\037@\000\000\000\000\000\200C@\000\000\000\000\000\000\037@\361\364JY\206\270;@\t\371\240g\263j\037@\232\231\231\231\231\361b@\315\314\314\314\314\014\020@\353\3426\032\300{/@\232\231\231\231\231\031 @\000\000\000\000\000\000\037@\243\222:\001M\204\037@\000\000\000\000\000\000\037@\000\000\000\000\000\000:@\315\314\314\314\314\214:@\315\314\314\314\314\214J@fffff&8@\000\000\000\000\000\000%@\000\000\000\000\000\000\037@\232\231\231\231\2319 @333333\036@\000\000\000\000\000\000*@\243\222:\001M\204\037@\000\000\000\000\000\0005@<\275R\226!\312T@\t\371\240g\263j\037@\000\000\000\000\000\000*@33333\0235@33333\263\037@\315\314\314\314\314\314,@\232\231\231\231\231\031 @33333cQ@\000\000\000\000\000\300;@/n\243\001\274\233d@\000\000\000\000\000\000\037@333333\034@TR\'\240\211\270K@fffffF @\315\314\314\314\314\314S@\315\314\314\314\314\214J@\000\000\000\000\000\000\035@\220\240\3701\346.\037@\232\231\231\231\2319[@fffff\346\034@33333\223(@\000\000\000\000\000\000\000\000\232\231\231\231\231\031\037@\315\314\314\314\314\214:@\t\371\240g\263j\037@\232\231\231\231\231\0310@\000\000\000\000\000\000:@\256\266b\177\331}.@\000\000\000\000\000\200>@\000\000\000\000\000\000*@\232\231\231\231\231\031\037@\000\000\000\000\000\000\024@\000\000\000\000\000\000\037@\000\000\000\000\000\000*@\000\000\000\000\000\000#@33333\263/@\000\000\000\000\000\0005@\000\000\000\000\000\000J@\367\006_\230L\225\037@\000\000\000\000\000\000-@\000\000\000\000\000`B@TR\'\240\211\300H@<\275R\226!\312T@\367\006_\230L\225\037@\232\231\231\231\231\031 @\270\257\003\347\214\350,@\315\314\314\314\314\314\031@\315\314\314\314\314jj@vq\033\r\340\2555@\t\371\240g\263\352\036@33333c?@\232\231\231\231\231Q\\@\232\231\231\231\231\031 @33333\263/@\367u\340\234\021\305V@\232\231\231\231\231\0310@33333c?@!\037\364lV\375N@\000\000\000\000\000\000*@\000\000\000\000\000\000%@\000\000\000\000\000`B@\315\314\314\314\314\314,@\000\000\000\000\000@:@\232\231\231\231\231\031\037@\000\000\000\000\000\0002@33333\363\"@33333cQ@\000\000\000\000\000@:@\232\231\231\231\231\031\037@\000\000\000\000\000\000J@\232\231\231\231\231\031 @\000\000\000\000\000\000%@\000\000\000\000\000\200>@33333\263=@\000\000\000\000\000\000*@\000\000\000\000\000\000\037@\000\000\000\000\000\000%@\t\371\240g\263j\037@\000\000\000\000\000\300H@\025\035\311\345?D&@\000\000\000\000\000\0007@\000\000\000\000\000\320`@\000\000\000\000\000\000:@\000\000\000\000\000\000:@HP\374\030s\027.@\220\240\3701\346.\037@\000\000\000\000\000\000\037@\t\371\240g\263\352\034@\000\000\000\000\000\000J@<\275R\226!\312T@\000\000\000\000\000\000:@\000\000\000\000\000\330C@\000\000\000\000\000\000\037@33333\263\037@{\203/L\246\352 @\315\314\314\314\314\214:@\220\240\3701\346.\037@\t\371\240g\263\352\034@\000\000\000\000\0000A@\221\017z6\253.S@\232\231\231\231\231\031\037@\232\231\231\231\231\0310@333333\037@\270\257\003\347\214\350,@\000\000\000\000\0000A@]m\305\376\262\373\031@33333\263\037@\000\000\000\000\000\000*@\232\231\231\231\231\031 @\000\000\000\000\000\320`@\000\000\000\000\000\300\031@\232\231\231\231\231\351S@$(~\214\271[6@33333\263\037@\000\000\000\000\000\000#@\243#\271\374\207\270[@\t\371\240g\263\352\034@\000\000\000\000\000\000:@\243#\271\374\207\270[@\000\000\000\000\000\000%@\270\257\003\347\214\350,@\000\000\000\000\000\200<@\315\314\314\314\314\214\037@\000\000\000\000\000\000\035@\315\314\314\314\314.c@\232\231\231\231\231\031 @33333\233Z@\000\000\000\000\0000A@33333\363(@\000\000\000\000\000 =@\000\000\000\000\000\000:@\000\000\000\000\000@:@\361\364JY\206\270;@\000\000\000\000\000fp@\315\314\314\314\314\214:@\025\035\311\345?D&@\000\000\000\000\000\000*@\337\340\013\223\251\002A@\367\006_\230L\225\037@\315\314\314\314\314\354$@\000\000\000\000\000@:@o\360\205\311T}S@\232\231\231\231\231\031 @fffff\346\034@\232\231\231\231\231I:@\000\000\000\000\000\0007@\000\000\000\000\000@7@\321\221\\\376C\364`@fffff&8@33333c:@\232\231\231\231\231\031\037@33333S!@\000\000\000\000\000\000:@\000\000\000\000\000\000\000\000\000\000\000\000\000\200>@33333cQ@!\037\364lV\375L@{\203/L\246\352,@333333.@\315\314\314\314\314\214:@\367\006_\230L\225\037@HP\374\030s\267+@\232\231\231\231\231\0310@\000\000\000\000\000\0007@\315\314\314\314\314.c@\000\000\000\000\000\000*@\367\006_\230L\225\037@\t\371\240g\263\352\034@fffff\346\034@\367\006_\230L\225\037@\000\000\000\000\0000A@33333\263\037@\220\240\3701\346\356\036@\000\000\000\000\000\000\037@TR\'\240\211\260N@\t\371\240g\263\352\034@p_\007\316\031Q\037@\254\255\330_v?L@\000\000\000\000\000@4@\t\371\240g\263\352\034@\243#\271\374\207\270[@\220\240\3701\346.\037@fffff\346;@\315\314\314\314\314\3141@\000\000\000\000\000\300;@\000\000\000\000\000\240U@33333S!@33333\263\037@\232\231\231\231\231\351S@\232\231\231\231\231I:@\000\000\000\000\000\000*@\000\000\000\000\000\200C@HP\374\030s7,@33333S!@333333\034@\000\000\000\000\000pj@\315\314\314\314\314l!@\000\000\000\000\000\000%@\315\314\314\314\314\314S@\220\240\3701\346.\037@33333\263(@\000\000\000\000\000\000+@\000\000\000\000\000pp@\000\000\000\000\000\000#@\000\000\000\000\000\000/@33333S!@\000\000\000\000\000\000/@33333\0235@\243#\271\374\207\270[@\000\000\000\000\000\000*@\315\314\314\314\314\314/@\000\000\000\000\000\000\033@\367\006_\230L\225\037@\000\000\000\000\000\000?@\000\000\000\000\000\000\035@\232\231\231\231\231\0310@\000\000\000\000\000\200V@\000\000\000\000\000\000*@\277\016\2343\242\002\200@\000\000\000\000\000\200\037@fffff\226N@\000\000\000\000\000\000*@\367\006_\230L\225\037@\000\000\000\000\000\000\000\000\000\000\000\000\000\000*@\232\231\231\231\231\031 @fffff&8@\270\257\003\347\214\010!@\000\000\000\000\000\000I@\t\371\240g\263j\037@\000\000\000\000\000\000%@\232\231\231\231\231\031 @\000\000\000\000\000\330C@\000\000\000\000\000\000*@33333sG@\000\000\000\000\000\000*@33333\263\"@\t\371\240g\263j\037@\000\000\000\000\000\000#@\000\000\000\000\000\000*@\000\000\000\000\000\000\000\000fffff\346\033@fffffF?@\315\314\314\314\314\214G@\000\000\000\000\000\200@@\000\000\000\000\000\000\000\000\000\000\000\000\000\000:@\000\000\000\000\000\000\037@\000\000\000\000\000`W@\000\000\000\000\000\000,@\000\000\000\000\000\000:@\000\000\000\000\000@:@\000\000\000\000\000\000\035@\000\000\000\000\000\000%@\367\006_\230L\225\037@\221\017z6\253.S@fffff\2066@\232\231\231\231\231\031 @\221\017z6\253FV@\367\006_\230L\225\037@\000\000\000\000\000\200@@33333S!@\232\231\231\231\231\031 @\000\000\000\000\000\000\035@\000\000\000\000\000\0002@\315\314\314\314\314\214:@\000\000\000\000\000\000\037@\000\000\000\000\000\000*@\326\305m4\2007\034@\270\257\003\347\214\350,@33333\263/@\315\314\314\314\314pl@\212\216\344\362\037\262>@\367\006_\230L\225\037@33333sG@\000\000\000\000\000\000*@\232\231\231\231\231\231\036@\000\000\000\000\000 =@\000\000\000\000\000fp@\000\000\000\000\000\000^@\367\006_\230L\225\037@\000\000\000\000\000\000*@\000\000\000\000\000\000\035@\000\000\000\000\000\3002@\000\000\000\000\000\000-@33333s7@\273\270\215\006\360vL@\t\371\240g\263j\037@/n\243\001\274\233d@\367\006_\230L\225\037@\000\000\000\000\000\200\034@fffffF?@\212\216\344\362\037\262>@33333sG@\000\000\000\000\000\000*@\254\255\330_v?L@333333\036@\273\270\215\006\360FJ@\000\000\000\000\000\000-@\000\000\000\000\000pp@\000\000\000\000\000\000\037@\273\270\215\006\360FJ@\000\000\000\000\000\0002@33333\263=@\000\000\000\000\000\000%@33333\2234@\356\353\3009#\312D@\000\000\000\000\000\000*@8\370\302d\252Pb@\000\000\000\000\000\000\000\000\315\314\314\314\314\214:@\000\000\000\000\000\000>@fffffF?@fffff\346\034@\000\000\000\000\000\000\037@33333S!@\000\000\000\000\000\000\035@\000\000\000\000\000\0008@33333cQ@\315\314\314\314\314\214:@\000\000\000\000\000\000*@\367\006_\230L\225\037@33333\2630@33333\263\037@\000\000\000\000\000\000%@\321\221\\\376C\364`@\315\314\314\314\314\314C@\000\000\000\000\000\200/@33333\263!@\256\266b\177\331\335 @\000\000\000\000\000\000(@\273\270\215\006\360FJ@\000\000\000\000\000\000%@fffff\346\034@\232\231\231\231\231\361b@\232\231\231\231\231\031 @fffff\246P@\315\314\314\314\314\354$@\000\000\000\000\000\000%@\000\000\000\000\000\000*@\000\000\000\000\000\0005@\000\000\000\000\000\000#@\000\000\000\000\000\000J@fffff\346\034@\000\000\000\000\000\000#@\000\000\000\000\000\330C@\000\000\000\000\000\000\037@\220\240\3701\346n\033@\000\000\000\000\000`R@\000\000\000\000\000\000-@\254\255\330_v?L@\000\000\000\000\000\000:@fffff\2064@\000\000\000\000\000\000\037@\342\351\225\262\014\261#@333333\034@\212\216\344\362\037\022>@\000\000\000\000\000\000?@fffff\346\034@fffff\246#@\315\314\314\314\314.c@\270\257\003\347\214\350,@fffff\346\034@33333\0235@\232\231\231\231\231Q\\@\367u\340\234\021\221S@\315\314\314\314\314\214:@33333\263C@33333\363(@333333\034@\315\314\314\314\314\314C@\000\000\000\000\000\000\000\000\232\231\231\231\231\031 @\315\314\314\314\314,#@\000\000\000\000\000\300;@33333s7@\t\371\240g\263\352\034@\017\013\265\246yw9@\353\3426\032\300{&@\000\000\000\000\000\000#@\232\231\231\231\231\231\036@\000\000\000\000\000\000\035@33333\0235@\315\314\314\314\314\314S@\000\000\000\000\000\000\037@\000\000\000\000\000\000*@fffffF?@\342\351\225\262\014Q @\000\000\000\000\000\0008@33333\263\037@\000\000\000\000\000\000:@\000\000\000\000\000\000:@]m\305\376\262\373\035@\000\000\000\000\000\000%@\232\231\231\231\231\361b@\036\026jM\363\316 @\000\000\000\000\000`R@\220\240\3701\346\356\036@333333\034@\232\231\231\231\231\031 @\000\000\000\000\000\300A@\000\000\000\000\000\000:@\315\314\314\314\314\214:@\315\314\314\314\314\214:@\000\000\000\000\000\200K@33333\263\037@\315\314\314\314\314,#@33333\263M@TR\'\240\211\200B@\367\006_\230L\225\037@\361\364JY\206\270;@\000\000\000\000\000\000\000\000\000\000\000\000\000\200\034@\000\000\000\000\000\000:@\256\266b\177\331}.@p_\007\316\031Q\037@\000\000\000\000\000\000+@\000\000\000\000\000\000*@\000\000\000\000\000`R@fffff\336T@fffffF?@333333\034@\t\371\240g\263j\037@33333\263\037@\000\000\000\000\000\000+@\205|\320\263Y\225+@\t\212\037c\356vT@\000\000\000\000\000\000:@\000\000\000\000\000\200A@\000\000\000\000\000\000>@\000\000\000\000\000\000\000\000fffff\346;@33333sG@!\037\364lV\275I@fffff\346;@fffffF?@33333\263\037@\367\006_\230L\225\037@\000\000\000\000\000\000:@\367\006_\230L\225\037@\000\000\000\000\000\000>@\277\016\2343\242\002\200@\017\013\265\246yw9@\232\231\231\231\231\031 @\315\314\314\314\314\314\033@\315\314\314\314\314pl@\000\000\000\000\000\000%@\000\000\000\000\000\000^@\000\000\000\000\000\000:@\000\000\000\000\000\200L@\000\000\000\000\000\240U@\000\000\000\000\000\000%@\315\314\314\314\314\214:@\t\371\240g\263j\037@HP\374\030s\367\"@\367u\340\234\021\221S@\315\314\314\314\314\314S@\t\212\037c\356\212T@\000\000\000\000\000\000J@\000\000\000\000\000\000*@\036\026jM\363N!@\212\216\344\362\037B3@\315\314\314\314\314pl@fffff\346\034@\254\255\330_v?L@\t\212\037c\356\212T@\232\231\231\231\231\031 @\000\000\000\000\000\0005@\367\006_\230L\225\037@fffff&8@\232\231\231\231\231\031.@\277\016\2343\242\002\200@\315\314\314\314\314\214:@\367\006_\230L\225\037@\326\305m4\200\367\036@\232\231\231\231\2319[@\232\231\231\231\231\031\037@\361\364JY\206\270;@\017\013\265\246yw9@\232\231\231\231\231\031 @\232\231\231\231\231\031\037@\000\000\000\000\000\000%@\000\000\000\000\000\000*@\000\000\000\000\000\000J@\000\000\000\000\000\000\"@33333c?@33333\363(@\205|\320\263Y\325*@\025\035\311\345?D&@333333E@\315\314\314\314\314\214J@\367\006_\230L\225\037@\000\000\000\000\000\000:@]m\305\376\262\373\031@\315\314\314\314\314L)@\t\371\240g\263\352\034@\315\314\314\314\314\214:@\000\000\000\000\000\000*@\000\000\000\000\000\000\'@\232\231\231\231\231\031 @\254\255\330_v?L@\356\353\3009#\312D@\315\314\314\314\314\214:@\000\000\000\000\000\000\000\000\000\000\000\000\000\000\037@\315\314\314\314\314\264`@fffff\346;@\000\000\000\000\000\000T@33333\2234@\000\000\000\000\000\000+@\000\000\000\000\000\000*@\232\231\231\231\231\031\037@\000\000\000\000\000\000\000\00033333\263\037@\000\000\000\000\000\200L@\256\266b\177\331}.@\243\222:\001M\204\037@\000\000\000\000\000\000:@33333s\"@\000\000\000\000\000\000%@\000\000\000\000\000\200\034@\232\231\231\231\231\031\037@\000\000\000\000\000\200C@33333SQ@\232\231\231\231\231\3112@\232\231\231\231\231\231\036@\036\026jM\363\016 @\000\000\000\000\000\0005@\000\000\000\000\000@P@\000\000\000\000\000\000/@\000\000\000\000\000\000\000\000\000\000\000\000\000\000\035@33333\263(@\367\006_\230L\225\037@\000\000\000\000\000\000%@fffff\346;@\000\000\000\000\000@C@\232\231\231\231\231\031 @33333\263\037@33333\263\037@\t\371\240g\263\352\034@\000\000\000\000\000@7@33333\2630@\000\000\000\000\000\000\000\000\315\314\314\314\314\214(@{\203/L\246\352,@\367\006_\230L\225\037@\232\231\231\231\231\031\037@\232\231\231\231\231\031 @\232\231\231\231\231\031 @33333S!@\000\000\000\000\000\000\037@\000\000\000\000\000\000\035@fffff\266S@\t\371\240g\263\352\034@\000\000\000\000\000pp@vq\033\r\340\3559@\221\017z6\253\022S@\315\314\314\314\314\014)@\243\222:\001M\204\036@\273\270\215\006\360vL@\243\222:\001M\204\037@\t\371\240g\263\352\034@fffff&\037@\315\314\314\314\314\214J@\232\231\231\231\231Q\\@\t\371\240g\263j\037@TR\'\240\211\300H@\254\255\330_v?L@\000\000\000\000\000\200C@\000\000\000\000\000`R@\000\000\000\000\000\000:@33333c?@33333\263(@\t\371\240g\263\352\034@HP\374\030sW$@\000\000\000\000\000\300A@\232\231\231\231\231\031 @fffff\346\036@\000\000\000\000\000\000/@33333\263=@\000\000\000\000\000\000\037@\232\231\231\231\231\031\037@\000\000\000\000\000\300Q@\256\266b\177\331}.@\270\257\003\347\214\350,@\000\000\000\000\000\000\037@\000\000\000\000\000\000*@\000\000\000\000\000`W@\232\231\231\231\231\351S@\367\006_\230L\225\037@\232\231\231\231\231\031 @\232\231\231\231\231\031 @\000\000\000\000\000\000*@33333\263\037@\000\000\000\000\000\0007@\000\000\000\000\000\000%@]m\305\376\262\373\035@\232\231\231\231\231\031\037@\212\216\344\362\037B3@\000\000\000\000\000\000/@\232\231\231\231\231\031\037@\220\240\3701\346\356\036@\232\231\231\231\231\0310@\367\006_\230L\225\037@\353\3426\032\300{/@33333\263\037@]m\305\376\262\373\035@\000\000\000\000\000\000:@\367\006_\230L\225\037@fffff\266S@33333S!@\000\000\000\000\000\000\035@\232\231\231\231\231\031 @\232\231\231\231\231\031 @\000\000\000\000\000\000:@\000\000\000\000\000\300A@fffff\346\033@\367\006_\230L\225\037@\000\000\000\000\000\000%@fffff\246#@\232\231\231\231\231\0310@33333S!@\t\371\240g\263j\037@\000\000\000\000\000\000#@\367\006_\230L\225\037@fffffRS@\036\026jM\363\256#@\356\353\3009#\312D@\000\000\000\000\000\000-@\367\006_\230L\225\037@\000\000\000\000\000\000.@fffffRS@\000\000\000\000\000@4@\000\000\000\000\000\330C@\000\000\000\000\000\000%@\212\216\344\362\037\022>@\000\000\000\000\000\000T@\000\000\000\000\000\000\037@33333\363K@\000\000\000\000\000\000?@\000\000\000\000\000\000*@"
      }
    }
  }
}
node {
  name: "Const_5"
